{
  "version": "1.0",
  "truncation": null,
  "padding": null,
  "added_tokens": [
    {
      "id": 0,
      "content": "<pad>",
      "single_word": false,
      "lstrip": false,
      "rstrip": false,
      "normalized": false,
      "special": true
    },
    {
      "id": 1,
      "content": "<unk>",
      "single_word": false,
      "lstrip": false,
      "rstrip": false,
      "normalized": false,
      "special": true
    },
    {
      "id": 2,
      "content": "<s>",
      "single_word": false,
      "lstrip": false,
      "rstrip": false,
      "normalized": false,
      "special": true
    },
    {
      "id": 3,
      "content": "</s>",
      "single_word": false,
      "lstrip": false,
      "rstrip": false,
      "normalized": false,
      "special": true
    }
  ],
  "normalizer": {
    "type": "Sequence",
    "normalizers": [
      {
        "type": "NFKC"
      }
    ]
  },
  "pre_tokenizer": {
    "type": "ByteLevel",
    "add_prefix_space": true,
    "trim_offsets": true,
    "use_regex": true
  },
  "post_processor": {
    "type": "TemplateProcessing",
    "single": [
      {
        "SpecialToken": {
          "id": "<s>",
          "type_id": 0
        }
      },
      {
        "Sequence": {
          "id": "A",
          "type_id": 0
        }
      },
      {
        "SpecialToken": {
          "id": "</s>",
          "type_id": 0
        }
      }
    ],
    "pair": [
      {
        "SpecialToken": {
          "id": "<s>",
          "type_id": 0
        }
      },
      {
        "Sequence": {
          "id": "A",
          "type_id": 0
        }
      },
      {
        "SpecialToken": {
          "id": "</s>",
          "type_id": 0
        }
      },
      {
        "SpecialToken": {
          "id": "<s>",
          "type_id": 0
        }
      },
      {
        "Sequence": {
          "id": "B",
          "type_id": 0
        }
      },
      {
        "SpecialToken": {
          "id": "</s>",
          "type_id": 0
        }
      }
    ],
    "special_tokens": {
      "</s>": {
        "id": "</s>",
        "ids": [
          2
        ],
        "tokens": [
          "</s>"
        ]
      },
      "<s>": {
        "id": "<s>",
        "ids": [
          1
        ],
        "tokens": [
          "<s>"
        ]
      }
    }
  },
  "decoder": null,
  "model": {
    "type": "BPE",
    "dropout": null,
    "unk_token": null,
    "continuing_subword_prefix": null,
    "end_of_word_suffix": null,
    "fuse_unk": false,
    "byte_fallback": false,
    "ignore_merges": false,
    "vocab": {
      "<pad>": 0,
      "<unk>": 1,
      "<s>": 2,
      "</s>": 3,
      "!": 4,
      "\"": 5,
      "$": 6,
      "%": 7,
      "&": 8,
      "'": 9,
      "(": 10,
      ")": 11,
      "*": 12,
      "+": 13,
      ",": 14,
      "-": 15,
      ".": 16,
      "/": 17,
      "0": 18,
      "1": 19,
      "2": 20,
      "3": 21,
      "4": 22,
      "5": 23,
      "6": 24,
      "7": 25,
      "8": 26,
      "9": 27,
      ":": 28,
      ";": 29,
      "<": 30,
      "=": 31,
      ">": 32,
      "?": 33,
      "@": 34,
      "A": 35,
      "B": 36,
      "C": 37,
      "D": 38,
      "E": 39,
      "F": 40,
      "G": 41,
      "H": 42,
      "I": 43,
      "J": 44,
      "K": 45,
      "L": 46,
      "M": 47,
      "N": 48,
      "O": 49,
      "P": 50,
      "Q": 51,
      "R": 52,
      "S": 53,
      "T": 54,
      "U": 55,
      "V": 56,
      "W": 57,
      "X": 58,
      "Y": 59,
      "Z": 60,
      "[": 61,
      "\\": 62,
      "]": 63,
      "^": 64,
      "_": 65,
      "`": 66,
      "a": 67,
      "b": 68,
      "c": 69,
      "d": 70,
      "e": 71,
      "f": 72,
      "g": 73,
      "h": 74,
      "i": 75,
      "j": 76,
      "k": 77,
      "l": 78,
      "m": 79,
      "n": 80,
      "o": 81,
      "p": 82,
      "q": 83,
      "r": 84,
      "s": 85,
      "t": 86,
      "u": 87,
      "v": 88,
      "w": 89,
      "x": 90,
      "y": 91,
      "z": 92,
      "{": 93,
      "|": 94,
      "}": 95,
      "~": 96,
      "»": 97,
      "¿": 98,
      "ï": 99,
      "ā": 100,
      "ă": 101,
      "Ą": 102,
      "ĉ": 103,
      "Ċ": 104,
      "Č": 105,
      "ě": 106,
      "ĝ": 107,
      "ğ": 108,
      "Ġ": 109,
      "se": 110,
      "re": 111,
      "in": 112,
      "on": 113,
      "te": 114,
      "de": 115,
      "or": 116,
      "Ġ=": 117,
      "st": 118,
      "sel": 119,
      "self": 120,
      "at": 121,
      "le": 122,
      "me": 123,
      "al": 124,
      "Ġi": 125,
      "er": 126,
      "Ġ'": 127,
      "an": 128,
      "Ġt": 129,
      "ar": 130,
      "Ġself": 131,
      "Ġc": 132,
      "Ġf": 133,
      "as": 134,
      "ion": 135,
      "ro": 136,
      "Ġre": 137,
      "ge": 138,
      "he": 139,
      "):": 140,
      "ct": 141,
      "ur": 142,
      "\"\"": 143,
      "ce": 144,
      "nt": 145,
      "Ġde": 146,
      "ue": 147,
      "',": 148,
      "Ġp": 149,
      "mp": 150,
      "it": 151,
      "ame": 152,
      "pe": 153,
      "el": 154,
      "Ġn": 155,
      "Ġdef": 156,
      "ser": 157,
      "Ġs": 158,
      "ate": 159,
      "fi": 160,
      "Ġin": 161,
      "lo": 162,
      "ut": 163,
      "ing": 164,
      "ĠĠ": 165,
      "Ġo": 166,
      "':": 167,
      "Ġa": 168,
      "()": 169,
      "co": 170,
      "li": 171,
      "('": 172,
      "Ġif": 173,
      "Ġ\"": 174,
      "ort": 175,
      "Ġe": 176,
      "urn": 177,
      "Ġd": 178,
      "turn": 179,
      "id": 180,
      "mo": 181,
      "name": 182,
      "__": 183,
      "ri": 184,
      "Ġthe": 185,
      "Ġb": 186,
      "\"\"\"": 187,
      "get": 188,
      "ck": 189,
      "ul": 190,
      "ot": 191,
      "ter": 192,
      "ma": 193,
      "un": 194,
      "Ġreturn": 195,
      "ad": 196,
      "is": 197,
      "),": 198,
      "one": 199,
      "pt": 200,
      "ra": 201,
      "il": 202,
      "Ġw": 203,
      "mport": 204,
      "Ġ\"\"\"": 205,
      "and": 206,
      "ke": 207,
      "Ġ(": 208,
      "val": 209,
      "Ġimport": 210,
      "ch": 211,
      "ass": 212,
      "Ġ[": 213,
      "Ġfor": 214,
      "ect": 215,
      "ss": 216,
      "ve": 217,
      "rom": 218,
      "ype": 219,
      "eld": 220,
      "up": 221,
      "')": 222,
      "sert": 223,
      "ab": 224,
      "th": 225,
      "con": 226,
      "ver": 227,
      "set": 228,
      "None": 229,
      "assert": 230,
      "test": 231,
      "ĠT": 232,
      "ult": 233,
      "ol": 234,
      "Ġis": 235,
      "arg": 236,
      "ata": 237,
      "Ġ{": 238,
      "ation": 239,
      "di": 240,
      "qu": 241,
      "Ġfrom": 242,
      "xt": 243,
      "Ġto": 244,
      "rue": 245,
      "._": 246,
      "']": 247,
      "et": 248,
      "bj": 249,
      "--": 250,
      "))": 251,
      "\",": 252,
      "lass": 253,
      "ath": 254,
      "Ġ1": 255,
      "Ġst": 256,
      "del": 257,
      "ĠĠĠĠ": 258,
      "sp": 259,
      "ap": 260,
      "00": 261,
      "nd": 262,
      "der": 263,
      "ror": 264,
      "value": 265,
      "['": 266,
      "ime": 267,
      "age": 268,
      "vi": 269,
      "Ġ%": 270,
      "Ġm": 271,
      "Ġcon": 272,
      "ment": 273,
      "Ġex": 274,
      "to": 275,
      "Re": 276,
      "la": 277,
      "um": 278,
      "que": 279,
      "key": 280,
      "Ġnot": 281,
      "ption": 282,
      "Ġ0": 283,
      "all": 284,
      "args": 285,
      "ed": 286,
      "model": 287,
      "ĠNone": 288,
      "Ġ_": 289,
      "Ġof": 290,
      "orm": 291,
      "type": 292,
      "(\"": 293,
      "ase": 294,
      "int": 295,
      "Ġu": 296,
      "],": 297,
      "ile": 298,
      "ig": 299,
      "bject": 300,
      "ction": 301,
      "Ġ+": 302,
      "am": 303,
      "Ġel": 304,
      "es": 305,
      "Ġh": 306,
      "ield": 307,
      "able": 308,
      "ex": 309,
      "file": 310,
      "Ġ==": 311,
      "pro": 312,
      "ĠS": 313,
      "iz": 314,
      "True": 315,
      "Ġ:": 316,
      "ted": 317,
      "tr": 318,
      "per": 319,
      "par": 320,
      "Ġtest": 321,
      "ode": 322,
      "Ġ*": 323,
      "path": 324,
      "ith": 325,
      "us": 326,
      "ang": 327,
      "en": 328,
      "ĠC": 329,
      "lin": 330,
      "Ġand": 331,
      "len": 332,
      "fa": 333,
      "ub": 334,
      "ta": 335,
      "ew": 336,
      "db": 337,
      "po": 338,
      "Ġclass": 339,
      "ĠA": 340,
      "ance": 341,
      "Ġr": 342,
      "text": 343,
      "Er": 344,
      "ack": 345,
      "list": 346,
      "Ġ('": 347,
      "che": 348,
      "ic": 349,
      "qual": 350,
      "Error": 351,
      "Ġth": 352,
      "quest": 353,
      "res": 354,
      "od": 355,
      "alse": 356,
      "ĠF": 357,
      "ry": 358,
      "log": 359,
      "field": 360,
      "bu": 361,
      "om": 362,
      "In": 363,
      "Ġg": 364,
      "='": 365,
      "fo": 366,
      "models": 367,
      "ow": 368,
      "\")": 369,
      "sion": 370,
      "Ġ{'": 371,
      "data": 372,
      "tem": 373,
      "str": 374,
      "Ġ-": 375,
      "ent": 376,
      "ango": 377,
      "jango": 378,
      "Ġres": 379,
      "stance": 380,
      "Ġname": 381,
      "form": 382,
      "Ġelse": 383,
      "ise": 384,
      "Ġ2": 385,
      "art": 386,
      "Ġ__": 387,
      "if": 388,
      "out": 389,
      "Ġor": 390,
      "ĠP": 391,
      "Ġme": 392,
      "put": 393,
      "Field": 394,
      "Equal": 395,
      "url": 396,
      "fig": 397,
      "add": 398,
      "ht": 399,
      "Ġbe": 400,
      "our": 401,
      "du": 402,
      "date": 403,
      "ys": 404,
      "time": 405,
      "est": 406,
      "reate": 407,
      "ist": 408,
      "assertEqual": 409,
      "Ġ@": 410,
      "mple": 411,
      "sh": 412,
      "Ġpro": 413,
      "code": 414,
      "ip": 415,
      "wor": 416,
      "==": 417,
      "ĠI": 418,
      "fields": 419,
      "Ġvalue": 420,
      "ER": 421,
      "ize": 422,
      "ive": 423,
      "object": 424,
      "red": 425,
      "\":": 426,
      "])": 427,
      "tri": 428,
      "'}": 429,
      "ger": 430,
      "spon": 431,
      "pec": 432,
      "py": 433,
      "oc": 434,
      "sc": 435,
      "Ġas": 436,
      "unt": 437,
      "Ġget": 438,
      "ĠD": 439,
      "Ġassert": 440,
      "ource": 441,
      "Ġmo": 442,
      "ho": 443,
      "Ġco": 444,
      "sponse": 445,
      "ĠM": 446,
      "Ġx": 447,
      "Ġset": 448,
      "Ġv": 449,
      "__(": 450,
      "Ġwith": 451,
      "Ġra": 452,
      "Ġ)": 453,
      "max": 454,
      "late": 455,
      "Ġse": 456,
      "Ġdata": 457,
      "ure": 458,
      "user": 459,
      "com": 460,
      "init": 461,
      "django": 462,
      "ff": 463,
      "----": 464,
      "kw": 465,
      "ange": 466,
      "bo": 467,
      "lient": 468,
      "line": 469,
      "rent": 470,
      "jo": 471,
      "Ġfile": 472,
      "Ġstr": 473,
      "Ex": 474,
      "Ġ[],": 475,
      "ly": 476,
      "pre": 477,
      "col": 478,
      "Ġy": 479,
      "cl": 480,
      "cess": 481,
      "IN": 482,
      "dex": 483,
      "rint": 484,
      "Ġresult": 485,
      "roup": 486,
      "atch": 487,
      "ity": 488,
      "ory": 489,
      "Con": 490,
      "thod": 491,
      ").": 492,
      "ON": 493,
      "ind": 494,
      "Ġraise": 495,
      "ssage": 496,
      "Ġexce": 497,
      "ader": 498,
      "pend": 499,
      "ial": 500,
      "Ġpar": 501,
      "ST": 502,
      "``": 503,
      "Ġ}": 504,
      "ĠTrue": 505,
      "error": 506,
      "ĠL": 507,
      "param": 508,
      "RE": 509,
      "ary": 510,
      "fault": 511,
      "Ġ<": 512,
      "ign": 513,
      "ild": 514,
      "Ġ>": 515,
      "pen": 516,
      "Ġan": 517,
      "Ġos": 518,
      "os": 519,
      "tent": 520,
      "Ġdi": 521,
      "ber": 522,
      "read": 523,
      "ec": 524,
      "ĠĠĠĠĠĠĠĠ": 525,
      "=\"": 526,
      "kwargs": 527,
      "dir": 528,
      "tp": 529,
      "vice": 530,
      "Ġl": 531,
      "uth": 532,
      "ty": 533,
      "loc": 534,
      "instance": 535,
      "low": 536,
      "Ġ3": 537,
      "class": 538,
      "ler": 539,
      "version": 540,
      "ext": 541,
      "ner": 542,
      "ĠN": 543,
      "Ġkey": 544,
      "AT": 545,
      ".__": 546,
      "temp": 547,
      "Test": 548,
      "False": 549,
      "mage": 550,
      "min": 551,
      "():": 552,
      "sed": 553,
      "append": 554,
      "dd": 555,
      "..": 556,
      "ns": 557,
      "pp": 558,
      "ĠFalse": 559,
      "attr": 560,
      "gth": 561,
      "Ġtry": 562,
      "op": 563,
      "ings": 564,
      "ument": 565,
      "Ġlog": 566,
      "load": 567,
      "lic": 568,
      "ator": 569,
      "default": 570,
      "stat": 571,
      "Ġexcept": 572,
      "port": 573,
      "'),": 574,
      "Ġprint": 575,
      "ask": 576,
      "vent": 577,
      "ies": 578,
      "Ġon": 579,
      "valid": 580,
      "ery": 581,
      "nect": 582,
      "Ġhe": 583,
      "ca": 584,
      "Ġlen": 585,
      "Ġch": 586,
      "ptions": 587,
      "ifi": 588,
      "Ġun": 589,
      "ore": 590,
      "dule": 591,
      "Ġma": 592,
      "Ġ**": 593,
      "util": 594,
      "ĠB": 595,
      "mand": 596,
      "ĠRe": 597,
      "'}),": 598,
      "request": 599,
      "pa": 600,
      "im": 601,
      "gin": 602,
      "tes": 603,
      "app": 604,
      "son": 605,
      "''": 606,
      "lib": 607,
      "ans": 608,
      "back": 609,
      "ml": 610,
      "ĠO": 611,
      "ĠThe": 612,
      "Ġthat": 613,
      "create": 614,
      "oo": 615,
      "ds": 616,
      "config": 617,
      "rite": 618,
      "info": 619,
      "act": 620,
      "ir": 621,
      "ĠU": 622,
      "scri": 623,
      "Ch": 624,
      "format": 625,
      "ĠG": 626,
      "ull": 627,
      "Val": 628,
      "Ġlist": 629,
      "ant": 630,
      "LE": 631,
      "01": 632,
      "update": 633,
      "count": 634,
      "Ġrequest": 635,
      "ag": 636,
      "unction": 637,
      "rap": 638,
      "Ġout": 639,
      "join": 640,
      "sg": 641,
      "fe": 642,
      "length": 643,
      "OR": 644,
      "und": 645,
      "dict": 646,
      "node": 647,
      "Ġen": 648,
      "Ġuser": 649,
      "end": 650,
      "ock": 651,
      "pla": 652,
      "query": 653,
      "Pro": 654,
      "work": 655,
      "server": 656,
      "Type": 657,
      "ded": 658,
      "ssion": 659,
      "Ġpass": 660,
      "lan": 661,
      "Ġtime": 662,
      "rect": 663,
      "main": 664,
      "ute": 665,
      "tribu": 666,
      "Ġthis": 667,
      "ten": 668,
      "view": 669,
      "Ġro": 670,
      "Ġal": 671,
      "umber": 672,
      "ill": 673,
      "Ġelif": 674,
      "ac": 675,
      "ren": 676,
      "Ġobject": 677,
      "12": 678,
      "ces": 679,
      "item": 680,
      "ave": 681,
      "abel": 682,
      "cur": 683,
      "EN": 684,
      "ters": 685,
      "Ġtype": 686,
      "())": 687,
      "start": 688,
      "Ġ[]": 689,
      "lock": 690,
      "ken": 691,
      "([": 692,
      "dent": 693,
      "Ġat": 694,
      "ite": 695,
      "ray": 696,
      "ay": 697,
      "arget": 698,
      "ample": 699,
      "ject": 700,
      "group": 701,
      "index": 702,
      "json": 703,
      "Ġnode": 704,
      "size": 705,
      "Ġ4": 706,
      "Ġby": 707,
      "Ġnew": 708,
      "Ke": 709,
      "ĠE": 710,
      "lu": 711,
      "ust": 712,
      "mit": 713,
      "pi": 714,
      "**": 715,
      "comp": 716,
      "client": 717,
      "gs": 718,
      "Ġcol": 719,
      "ception": 720,
      "====": 721,
      "Ġsys": 722,
      "ault": 723,
      "Name": 724,
      "ition": 725,
      "ress": 726,
      "sub": 727,
      "St": 728,
      "ĠW": 729,
      "Ġwh": 730,
      "qui": 731,
      "write": 732,
      "Value": 733,
      "ĠH": 734,
      "AL": 735,
      "no": 736,
      "10": 737,
      "string": 738,
      "Ġdefault": 739,
      "Ġ{}": 740,
      "Ġpath": 741,
      "//": 742,
      "ume": 743,
      "template": 744,
      "Ġk": 745,
      "Ġurl": 746,
      "Ġform": 747,
      "(),": 748,
      "cor": 749,
      "with": 750,
      "mb": 751,
      "tain": 752,
      "ok": 753,
      "Key": 754,
      "ME": 755,
      "vel": 756,
      "ll": 757,
      "word": 758,
      "Ġcom": 759,
      "nection": 760,
      "DE": 761,
      "SE": 762,
      "].": 763,
      "Ġpre": 764,
      "Ġit": 765,
      "own": 766,
      "auth": 767,
      "[\"": 768,
      "fix": 769,
      "tings": 770,
      "by": 771,
      "Ġ['": 772,
      "ron": 773,
      "'],": 774,
      "Ġ'''": 775,
      "result": 776,
      "Ġresponse": 777,
      "unc": 778,
      "not": 779,
      "ib": 780,
      "ĠR": 781,
      "Ġ\\": 782,
      "Ġnp": 783,
      "Ġhas": 784,
      "lement": 785,
      "net": 786,
      "utils": 787,
      "Ġ+=": 788,
      "ree": 789,
      "Ġare": 790,
      "ost": 791,
      "state": 792,
      "andler": 793,
      "md": 794,
      "Ġsup": 795,
      "ID": 796,
      "ix": 797,
      "array": 798,
      "Ġfield": 799,
      "method": 800,
      "ard": 801,
      "Ġsh": 802,
      "map": 803,
      "status": 804,
      "arch": 805,
      "reg": 806,
      "ther": 807,
      "spa": 808,
      "do": 809,
      "service": 810,
      "Ġ>>": 811,
      "Ġ``": 812,
      "AR": 813,
      "pos": 814,
      "led": 815,
      "Ġargs": 816,
      "base": 817,
      ".\"\"\"": 818,
      "Ġadd": 819,
      "call": 820,
      "Ġsub": 821,
      "ail": 822,
      "Ġarg": 823,
      "11": 824,
      "obj": 825,
      "host": 826,
      "http": 827,
      "perty": 828,
      "32": 829,
      "lete": 830,
      "for": 831,
      "lank": 832,
      "ated": 833,
      "De": 834,
      "pected": 835,
      "ne": 836,
      "response": 837,
      "Ġisinstance": 838,
      "ations": 839,
      "TE": 840,
      "Char": 841,
      "Ġdo": 842,
      "Ġcur": 843,
      "thon": 844,
      "da": 845,
      "ape": 846,
      "Ġinstance": 847,
      "source": 848,
      "run": 849,
      "var": 850,
      "loat": 851,
      "Ġ`": 852,
      "message": 853,
      "Ġmethod": 854,
      "table": 855,
      "api": 856,
      "uld": 857,
      "Ġconfig": 858,
      "Ġapp": 859,
      "from": 860,
      "Exception": 861,
      "tern": 862,
      "are": 863,
      "mon": 864,
      "\"]": 865,
      "umn": 866,
      "og": 867,
      "0000": 868,
      "Ġwill": 869,
      "lean": 870,
      "Ġ5": 871,
      "move": 872,
      "Ġla": 873,
      "dis": 874,
      "Ġcl": 875,
      "module": 876,
      "fil": 877,
      "Ġ.": 878,
      "Ġint": 879,
      "lit": 880,
      "ses": 881,
      "nc": 882,
      "context": 883,
      "Ġpy": 884,
      "heck": 885,
      "'])": 886,
      "ule": 887,
      "his": 888,
      "tribute": 889,
      "://": 890,
      "lp": 891,
      "CharField": 892,
      "Ġ!": 893,
      "Ġ>>>": 894,
      "doc": 895,
      "AN": 896,
      "has": 897,
      "pr": 898,
      "row": 899,
      "Ġstring": 900,
      "aders": 901,
      "objects": 902,
      "ou": 903,
      "TI": 904,
      "().": 905,
      "sent": 906,
      "rame": 907,
      "sing": 908,
      "mail": 909,
      "Ġdjango": 910,
      "local": 911,
      "clo": 912,
      "action": 913,
      "ody": 914,
      "content": 915,
      "bug": 916,
      "Ġitem": 917,
      "Str": 918,
      "Co": 919,
      "ft": 920,
      "we": 921,
      "space": 922,
      "Ġcreate": 923,
      "Ġ!=": 924,
      "ĠIn": 925,
      "Ġcan": 926,
      "Ġline": 927,
      "64": 928,
      "link": 929,
      "image": 930,
      "man": 931,
      "uto": 932,
      "Ġall": 933,
      "check": 934,
      "Ġwhe": 935,
      "25": 936,
      "Ġbu": 937,
      "Ġmessage": 938,
      "AC": 939,
      "scription": 940,
      "Ġspec": 941,
      "ers": 942,
      "return": 943,
      "pri": 944,
      "arn": 945,
      "itle": 946,
      "ref": 947,
      "gener": 948,
      "To": 949,
      "Ġcall": 950,
      "SI": 951,
      "ager": 952,
      "RO": 953,
      "lob": 954,
      "new": 955,
      "Ġcomp": 956,
      "Set": 957,
      "Ġz": 958,
      "ine": 959,
      "nel": 960,
      "blank": 961,
      "Mo": 962,
      "mis": 963,
      "Ġ/": 964,
      "File": 965,
      "--------": 966,
      "99": 967,
      "si": 968,
      "ight": 969,
      "Ġerror": 970,
      "'.": 971,
      "Ġle": 972,
      "so": 973,
      "Ġstat": 974,
      "foo": 975,
      "((": 976,
      "ging": 977,
      "parse": 978,
      "her": 979,
      "ream": 980,
      "Case": 981,
      "'))": 982,
      "tro": 983,
      "GE": 984,
      "uct": 985,
      "'):": 986,
      "Ġdb": 987,
      "Me": 988,
      "Data": 989,
      "tra": 990,
      "Ġid": 991,
      "ĠCon": 992,
      "Ġfunction": 993,
      "clu": 994,
      "su": 995,
      "inter": 996,
      "teger": 997,
      "ackage": 998,
      "Ġdate": 999,
      "Ġ..": 1000,
      "split": 1001,
      "ph": 1002,
      "ĠThis": 1003,
      "Ġ|": 1004,
      "Ġmodels": 1005,
      "label": 1006,
      "ts": 1007,
      "Ġversion": 1008,
      "ĠV": 1009,
      "lated": 1010,
      "Ser": 1011,
      "rans": 1012,
      "TT": 1013,
      "lugin": 1014,
      "Ġ},": 1015,
      "ify": 1016,
      "Ġother": 1017,
      "Ġpo": 1018,
      "Ġbase": 1019,
      "Ġoutput": 1020,
      "trol": 1021,
      "ound": 1022,
      "Ġuse": 1023,
      "ccess": 1024,
      "bs": 1025,
      "ĠTest": 1026,
      "uid": 1027,
      "Ġmock": 1028,
      "point": 1029,
      "ax": 1030,
      "Ġno": 1031,
      "core": 1032,
      "ĠIf": 1033,
      "output": 1034,
      "Ġdict": 1035,
      "Ġcontext": 1036,
      "ols": 1037,
      "Ġrun": 1038,
      "process": 1039,
      "Ġstart": 1040,
      "ak": 1041,
      "types": 1042,
      "Ġli": 1043,
      "ms": 1044,
      "mary": 1045,
      "Ġmodel": 1046,
      "Ġtext": 1047,
      "ttp": 1048,
      "ps": 1049,
      "cre": 1050,
      "PE": 1051,
      "ght": 1052,
      "ich": 1053,
      "cs": 1054,
      "ĠĠĠ": 1055,
      "Ġmax": 1056,
      "Ġwe": 1057,
      "vis": 1058,
      "filter": 1059,
      "Ġwor": 1060,
      "List": 1061,
      "cache": 1062,
      "lat": 1063,
      "FI": 1064,
      "ark": 1065,
      "SS": 1066,
      "raph": 1067,
      "Ġpa": 1068,
      "Ġobj": 1069,
      "ĠReturn": 1070,
      "sys": 1071,
      "alled": 1072,
      "[:": 1073,
      "null": 1074,
      "Ġsuper": 1075,
      "UT": 1076,
      "uple": 1077,
      "Ġsu": 1078,
      "func": 1079,
      "icode": 1080,
      "Ġend": 1081,
      "UR": 1082,
      "AD": 1083,
      "Ġ]": 1084,
      "input": 1085,
      "Id": 1086,
      "be": 1087,
      "ises": 1088,
      "ld": 1089,
      ":`": 1090,
      "project": 1091,
      "my": 1092,
      "params": 1093,
      "direct": 1094,
      "eta": 1095,
      "ific": 1096,
      "ump": 1097,
      "PI": 1098,
      "AA": 1099,
      "ake": 1100,
      "delete": 1101,
      "\"),": 1102,
      "Se": 1103,
      "play": 1104,
      "Ġclient": 1105,
      "filename": 1106,
      "LO": 1107,
      "Time": 1108,
      "Ġper": 1109,
      "rc": 1110,
      "use": 1111,
      "20": 1112,
      "values": 1113,
      "ible": 1114,
      "token": 1115,
      "ally": 1116,
      "options": 1117,
      "stri": 1118,
      "Ġj": 1119,
      "Ġparam": 1120,
      "command": 1121,
      "event": 1122,
      "TestCase": 1123,
      "ari": 1124,
      "target": 1125,
      "andom": 1126,
      "Model": 1127,
      "000": 1128,
      "Ġexpected": 1129,
      "ome": 1130,
      "})": 1131,
      "Ġmsg": 1132,
      "ding": 1133,
      "idth": 1134,
      "mission": 1135,
      "tin": 1136,
      "trans": 1137,
      "sy": 1138,
      "ice": 1139,
      "Ġrange": 1140,
      "Ġcode": 1141,
      "ors": 1142,
      "ments": 1143,
      "debug": 1144,
      "Ġmodule": 1145,
      "gr": 1146,
      "Ġdoc": 1147,
      "Di": 1148,
      "lication": 1149,
      "ameters": 1150,
      "names": 1151,
      "viron": 1152,
      "CO": 1153,
      "ValueError": 1154,
      "its": 1155,
      "Ġstate": 1156,
      "place": 1157,
      "orted": 1158,
      "Up": 1159,
      "num": 1160,
      "Un": 1161,
      "ĠQ": 1162,
      "Ġused": 1163,
      "Par": 1164,
      "tag": 1165,
      "pts": 1166,
      "ffer": 1167,
      "Ġcurrent": 1168,
      "'s": 1169,
      "Ġdis": 1170,
      "Get": 1171,
      "adata": 1172,
      "lines": 1173,
      "mock": 1174,
      "Ġindex": 1175,
      "open": 1176,
      "Ġimage": 1177,
      "Ġopen": 1178,
      "Ġwhich": 1179,
      "Ġevent": 1180,
      "ache": 1181,
      "order": 1182,
      "Ġ6": 1183,
      "idget": 1184,
      "clude": 1185,
      "andle": 1186,
      "</": 1187,
      "hould": 1188,
      "store": 1189,
      "exec": 1190,
      "IT": 1191,
      "patch": 1192,
      "msg": 1193,
      "select": 1194,
      "indow": 1195,
      "Ġquery": 1196,
      "tocol": 1197,
      "String": 1198,
      "Form": 1199,
      "ep": 1200,
      "Ġcheck": 1201,
      "NA": 1202,
      "ong": 1203,
      "Ġvalues": 1204,
      "Base": 1205,
      "CE": 1206,
      "pass": 1207,
      "16": 1208,
      "iven": 1209,
      "related": 1210,
      "Ġcommand": 1211,
      "lection": 1212,
      "Ġ10": 1213,
      "settings": 1214,
      "av": 1215,
      "},": 1216,
      "iter": 1217,
      "Ġver": 1218,
      "spec": 1219,
      "ĠX": 1220,
      "cls": 1221,
      "Ar": 1222,
      "bin": 1223,
      "Ġent": 1224,
      "Ġserver": 1225,
      "ql": 1226,
      "Ġhelp": 1227,
      "root": 1228,
      "DI": 1229,
      "def": 1230,
      "Ġkwargs": 1231,
      "err": 1232,
      "Ġoptions": 1233,
      "bar": 1234,
      "50": 1235,
      "Not": 1236,
      "ializ": 1237,
      "34": 1238,
      "ick": 1239,
      "Ġcontent": 1240,
      "close": 1241,
      "shape": 1242,
      "assertTrue": 1243,
      "MA": 1244,
      "job": 1245,
      "mbda": 1246,
      "men": 1247,
      "property": 1248,
      "Ġaction": 1249,
      "ual": 1250,
      "ste": 1251,
      "quired": 1252,
      "cri": 1253,
      "keys": 1254,
      "Ġargument": 1255,
      "option": 1256,
      "ale": 1257,
      "(_": 1258,
      "UL": 1259,
      "queue": 1260,
      "items": 1261,
      "24": 1262,
      "Ġne": 1263,
      "Ġshould": 1264,
      "range": 1265,
      "Node": 1266,
      "User": 1267,
      "html": 1268,
      "~~": 1269,
      "Ġcontain": 1270,
      "plo": 1271,
      "Ġ(\"": 1272,
      "Ġnumber": 1273,
      "ists": 1274,
      "ING": 1275,
      "build": 1276,
      "::": 1277,
      "Ġlogging": 1278,
      "Ġsource": 1279,
      "ocket": 1280,
      "ution": 1281,
      "task": 1282,
      "Man": 1283,
      "child": 1284,
      "xy": 1285,
      "Ra": 1286,
      "ittest": 1287,
      "Ġreg": 1288,
      "14": 1289,
      "lay": 1290,
      "Ġtarget": 1291,
      "Com": 1292,
      "ast": 1293,
      "ister": 1294,
      "ud": 1295,
      "number": 1296,
      "ran": 1297,
      "TTP": 1298,
      "session": 1299,
      "Ġ'%": 1300,
      "Object": 1301,
      "face": 1302,
      "stra": 1303,
      "Ġ8": 1304,
      "RI": 1305,
      "30": 1306,
      "ature": 1307,
      "uration": 1308,
      "========": 1309,
      "(*": 1310,
      "annel": 1311,
      "equal": 1312,
      "Ġparser": 1313,
      "Col": 1314,
      "fs": 1315,
      "sche": 1316,
      "function": 1317,
      "Ġformat": 1318,
      "datetime": 1319,
      ")),": 1320,
      "emp": 1321,
      "stant": 1322,
      "UN": 1323,
      "unk": 1324,
      "Ġgroup": 1325,
      "Ġtra": 1326,
      "change": 1327,
      "Text": 1328,
      "feren": 1329,
      "title": 1330,
      "ilter": 1331,
      "tadata": 1332,
      "LI": 1333,
      "CH": 1334,
      "io": 1335,
      "resource": 1336,
      "15": 1337,
      "PO": 1338,
      "Ġgiven": 1339,
      "US": 1340,
      "of": 1341,
      "Ġinput": 1342,
      "page": 1343,
      "Ġvalid": 1344,
      "parent": 1345,
      "iv": 1346,
      "CT": 1347,
      "][": 1348,
      "olume": 1349,
      "trib": 1350,
      "ĠReturns": 1351,
      "19": 1352,
      "Ġtable": 1353,
      "tension": 1354,
      "{'": 1355,
      ")))": 1356,
      "post": 1357,
      "AB": 1358,
      "ified": 1359,
      "save": 1360,
      "tributes": 1361,
      "ures": 1362,
      "onent": 1363,
      "ach": 1364,
      "Ġcls": 1365,
      "raw": 1366,
      "als": 1367,
      "\".": 1368,
      "Ġq": 1369,
      "right": 1370,
      "files": 1371,
      "Ġjson": 1372,
      "umpy": 1373,
      "pk": 1374,
      "find": 1375,
      "Request": 1376,
      "Ġrow": 1377,
      "Ġtag": 1378,
      "Ġparams": 1379,
      "np": 1380,
      "cord": 1381,
      "amp": 1382,
      "Ġport": 1383,
      "pect": 1384,
      "copy": 1385,
      "MP": 1386,
      "Add": 1387,
      "33": 1388,
      "level": 1389,
      "ain": 1390,
      "Ġhost": 1391,
      "=[": 1392,
      "fir": 1393,
      "match": 1394,
      "ĠJ": 1395,
      "ATE": 1396,
      "Ġoption": 1397,
      "prefix": 1398,
      "sign": 1399,
      "atab": 1400,
      "current": 1401,
      "box": 1402,
      "Ġ'/": 1403,
      "ython": 1404,
      "04": 1405,
      "rt": 1406,
      "nce": 1407,
      "ww": 1408,
      "uster": 1409,
      "ique": 1410,
      "admin": 1411,
      "ci": 1412,
      "ware": 1413,
      "Ġdatetime": 1414,
      "orage": 1415,
      "Ġext": 1416,
      "ĠValueError": 1417,
      "mem": 1418,
      "atabase": 1419,
      "Vi": 1420,
      "ateg": 1421,
      "Ġinter": 1422,
      "TY": 1423,
      "At": 1424,
      "oreign": 1425,
      "Ġwhen": 1426,
      "xml": 1427,
      "Ġlo": 1428,
      "Ġret": 1429,
      "river": 1430,
      "vert": 1431,
      "top": 1432,
      "org": 1433,
      "Ġread": 1434,
      "Ġtrans": 1435,
      "17": 1436,
      "Ġ::": 1437,
      "last": 1438,
      ")]": 1439,
      "pat": 1440,
      "body": 1441,
      "fla": 1442,
      "old": 1443,
      "Ġwork": 1444,
      "now": 1445,
      "ĠDe": 1446,
      "iled": 1447,
      "float": 1448,
      "nder": 1449,
      "ML": 1450,
      "18": 1451,
      "Ġad": 1452,
      "fact": 1453,
      "bose": 1454,
      "ash": 1455,
      "inal": 1456,
      "Ġauth": 1457,
      "Ġone": 1458,
      "Ġsettings": 1459,
      "Return": 1460,
      "connection": 1461,
      "Ġhttp": 1462,
      "Ġup": 1463,
      "KE": 1464,
      "35": 1465,
      "Date": 1466,
      "Ġstatus": 1467,
      "Ġwhile": 1468,
      "En": 1469,
      "block": 1470,
      "ENT": 1471,
      "uri": 1472,
      "network": 1473,
      "etwork": 1474,
      "Integer": 1475,
      "gra": 1476,
      "Ġfilename": 1477,
      "ĠEx": 1478,
      "Ġyield": 1479,
      "Ġmust": 1480,
      "cmd": 1481,
      "'},": 1482,
      "Ġac": 1483,
      "otal": 1484,
      "Ġ--": 1485,
      "igr": 1486,
      "oreignKey": 1487,
      "conf": 1488,
      "Ġyou": 1489,
      "df": 1490,
      "Ġact": 1491,
      "UE": 1492,
      "\\\\": 1493,
      "OT": 1494,
      "oolean": 1495,
      "Ġpart": 1496,
      "Ġupdate": 1497,
      "location": 1498,
      "pub": 1499,
      "Ġmin": 1500,
      "Ġparent": 1501,
      "Ġsize": 1502,
      "ting": 1503,
      "sor": 1504,
      "lease": 1505,
      "print": 1506,
      "Ġgener": 1507,
      "ui": 1508,
      "domain": 1509,
      "yle": 1510,
      "Ġ7": 1511,
      "100": 1512,
      "headers": 1513,
      "vo": 1514,
      "Ġpos": 1515,
      "pop": 1516,
      "remove": 1517,
      "kip": 1518,
      "description": 1519,
      "ie": 1520,
      "ton": 1521,
      "older": 1522,
      "ical": 1523,
      "tinue": 1524,
      "verse": 1525,
      "address": 1526,
      "dout": 1527,
      "Ġmatch": 1528,
      "22": 1529,
      "email": 1530,
      "atri": 1531,
      "CON": 1532,
      "fore": 1533,
      "make": 1534,
      "cer": 1535,
      "Ġlabel": 1536,
      "Ġsy": 1537,
      "tail": 1538,
      "cond": 1539,
      "NAME": 1540,
      "struct": 1541,
      "FA": 1542,
      "ates": 1543,
      "off": 1544,
      "manager": 1545,
      "Raises": 1546,
      "Ġview": 1547,
      "ped": 1548,
      "Ġtoken": 1549,
      "handler": 1550,
      "Ġback": 1551,
      "Ġbo": 1552,
      "fail": 1553,
      "ĠPro": 1554,
      "ForeignKey": 1555,
      "mt": 1556,
      "Bu": 1557,
      "uture": 1558,
      "Ġtemplate": 1559,
      "Ġval": 1560,
      "View": 1561,
      "Ġhave": 1562,
      "Ġany": 1563,
      "reak": 1564,
      "itor": 1565,
      "Po": 1566,
      "stall": 1567,
      "Config": 1568,
      "Ġtask": 1569,
      "mode": 1570,
      "IO": 1571,
      "password": 1572,
      "Ġ\"\"": 1573,
      "licy": 1574,
      "lice": 1575,
      "Ġlogger": 1576,
      "mote": 1577,
      "irst": 1578,
      "uage": 1579,
      "search": 1580,
      "connect": 1581,
      "actory": 1582,
      "anguage": 1583,
      "Ġdirect": 1584,
      "strip": 1585,
      "coding": 1586,
      "sum": 1587,
      "next": 1588,
      "80": 1589,
      "fg": 1590,
      "Ġresource": 1591,
      "ameter": 1592,
      "swith": 1593,
      "parser": 1594,
      "cal": 1595,
      "send": 1596,
      "'t": 1597,
      "assertRaises": 1598,
      "uuid": 1599,
      "Ġ'.": 1600,
      "other": 1601,
      "ont": 1602,
      "Response": 1603,
      "lug": 1604,
      "lect": 1605,
      "pert": 1606,
      "56": 1607,
      "Ġfla": 1608,
      "ids": 1609,
      "('/": 1610,
      "ference": 1611,
      "argument": 1612,
      "the": 1613,
      "ĠĠĠĠĠĠĠĠĠĠĠĠĠĠĠĠ": 1614,
      "Ġattr": 1615,
      "ĠException": 1616,
      "Ġonly": 1617,
      "umer": 1618,
      "atrix": 1619,
      "Ġcontinue": 1620,
      "ariable": 1621,
      "frame": 1622,
      "cp": 1623,
      "Ġconnection": 1624,
      "ifier": 1625,
      "Ġ9": 1626,
      "import": 1627,
      "Handler": 1628,
      "perties": 1629,
      "req": 1630,
      "color": 1631,
      "gine": 1632,
      "part": 1633,
      "Meta": 1634,
      "Ġinit": 1635,
      "nse": 1636,
      "ush": 1637,
      "AS": 1638,
      "86": 1639,
      "Ġfloat": 1640,
      "ternal": 1641,
      "wa": 1642,
      "lower": 1643,
      "Ġdel": 1644,
      "ared": 1645,
      "stream": 1646,
      "37": 1647,
      "Ġheaders": 1648,
      "').": 1649,
      "primary": 1650,
      "ormal": 1651,
      "meta": 1652,
      "Ġcount": 1653,
      "script": 1654,
      "vm": 1655,
      "200": 1656,
      "pc": 1657,
      "The": 1658,
      "Ġprovi": 1659,
      "mark": 1660,
      "Ġelement": 1661,
      "header": 1662,
      "Group": 1663,
      "Ġdest": 1664,
      "abled": 1665,
      "fer": 1666,
      "Path": 1667,
      "package": 1668,
      "gen": 1669,
      "username": 1670,
      "lobal": 1671,
      "alt": 1672,
      "36": 1673,
      "55": 1674,
      "201": 1675,
      "Ġtuple": 1676,
      "Client": 1677,
      "Ġbody": 1678,
      "84": 1679,
      "Ver": 1680,
      "ĠSe": 1681,
      "down": 1682,
      "ative": 1683,
      "Ġpri": 1684,
      "Ġman": 1685,
      "'})": 1686,
      "Ġfields": 1687,
      "flow": 1688,
      "[-": 1689,
      "width": 1690,
      "exp": 1691,
      "Log": 1692,
      "column": 1693,
      "sup": 1694,
      "Ġresults": 1695,
      "Ġoper": 1696,
      "ker": 1697,
      "cle": 1698,
      "Ġproject": 1699,
      "Class": 1700,
      "Ġ\"%": 1701,
      "Ġiter": 1702,
      "Ġnumpy": 1703,
      "Ġchild": 1704,
      "No": 1705,
      "ected": 1706,
      "tmp": 1707,
      "she": 1708,
      "Auto": 1709,
      "Qu": 1710,
      "ustom": 1711,
      "rule": 1712,
      "can": 1713,
      "stamp": 1714,
      "cript": 1715,
      "Ġspecified": 1716,
      "Ġservice": 1717,
      "Ġgetattr": 1718,
      "Ġ''": 1719,
      "tools": 1720,
      "asses": 1721,
      "fter": 1722,
      "Ġbut": 1723,
      "ĠAr": 1724,
      "Ġfiles": 1725,
      "Ġ),": 1726,
      "ating": 1727,
      "HE": 1728,
      "stack": 1729,
      "Is": 1730,
      "arning": 1731,
      "plugin": 1732,
      "VER": 1733,
      "umns": 1734,
      "Ġlocal": 1735,
      "first": 1736,
      "ous": 1737,
      "ook": 1738,
      "FF": 1739,
      "rou": 1740,
      "element": 1741,
      "Ġfirst": 1742,
      "vision": 1743,
      "register": 1744,
      ".\"": 1745,
      "resh": 1746,
      "Ġmake": 1747,
      "27": 1748,
      "gle": 1749,
      "Ġtw": 1750,
      "Ġser": 1751,
      "python": 1752,
      "cho": 1753,
      "replace": 1754,
      "ulti": 1755,
      "Ġmode": 1756,
      "Command": 1757,
      "duct": 1758,
      "char": 1759,
      "ved": 1760,
      "TYPE": 1761,
      "imple": 1762,
      "environ": 1763,
      "sa": 1764,
      "89": 1765,
      "TION": 1766,
      "Ġ%(": 1767,
      "Ġ...": 1768,
      "Ġcmd": 1769,
      "ization": 1770,
      "env": 1771,
      "actor": 1772,
      "Ġusing": 1773,
      "OP": 1774,
      "Ġchange": 1775,
      "TH": 1776,
      "Message": 1777,
      "Ġnum": 1778,
      "IntegerField": 1779,
      "contain": 1780,
      "Dict": 1781,
      "Ġdoes": 1782,
      "pack": 1783,
      "Ġover": 1784,
      "sentry": 1785,
      "Ġexec": 1786,
      "Lo": 1787,
      "case": 1788,
      "ning": 1789,
      "ĠSt": 1790,
      "EX": 1791,
      "']['": 1792,
      "Item": 1793,
      "Ġsession": 1794,
      "LA": 1795,
      "Ġprocess": 1796,
      "mented": 1797,
      "dic": 1798,
      "ready": 1799,
      "MO": 1800,
      "ches": 1801,
      "IL": 1802,
      ".')": 1803,
      "'].": 1804,
      "active": 1805,
      "lation": 1806,
      "Ġfound": 1807,
      "random": 1808,
      "ord": 1809,
      "future": 1810,
      "ctionary": 1811,
      "aster": 1812,
      "Ġsign": 1813,
      "sw": 1814,
      "Ġextra": 1815,
      "ĠY": 1816,
      "Comp": 1817,
      "TER": 1818,
      "ialize": 1819,
      "39": 1820,
      "Ġexp": 1821,
      "etch": 1822,
      ").__": 1823,
      "ob": 1824,
      "Ġobjects": 1825,
      "NO": 1826,
      "02": 1827,
      "cept": 1828,
      "exists": 1829,
      "ultip": 1830,
      "Ġlast": 1831,
      "BU": 1832,
      "ener": 1833,
      "ls": 1834,
      "present": 1835,
      ")):": 1836,
      "ĠPython": 1837,
      "Ġax": 1838,
      "Ġbreak": 1839,
      "difi": 1840,
      "URL": 1841,
      "Ġ\"'": 1842,
      "=%": 1843,
      "Ġroot": 1844,
      "ailable": 1845,
      "Ġorder": 1846,
      "Ġsche": 1847,
      "nown": 1848,
      "DB": 1849,
      "lt": 1850,
      "amples": 1851,
      "66": 1852,
      "Boolean": 1853,
      "Ġ&": 1854,
      "Ġcache": 1855,
      "ote": 1856,
      "tests": 1857,
      "device": 1858,
      "\"}": 1859,
      "author": 1860,
      "Ġfe": 1861,
      "execute": 1862,
      "extra": 1863,
      "igh": 1864,
      "Ġcopy": 1865,
      "AP": 1866,
      "system": 1867,
      "Stat": 1868,
      "Ġ<=": 1869,
      "common": 1870,
      "cope": 1871,
      "quence": 1872,
      "ized": 1873,
      "static": 1874,
      "timeout": 1875,
      "derr": 1876,
      "Ġpage": 1877,
      "tend": 1878,
      "metadata": 1879,
      "Ġass": 1880,
      "Bo": 1881,
      "assertEquals": 1882,
      "hash": 1883,
      "vari": 1884,
      "','": 1885,
      "Ġvi": 1886,
      "ERR": 1887,
      "Res": 1888,
      "oper": 1889,
      "ĠNot": 1890,
      "cket": 1891,
      "Ad": 1892,
      "****": 1893,
      "br": 1894,
      "Ġallow": 1895,
      "formation": 1896,
      "AutoField": 1897,
      "]:": 1898,
      "ĠPar": 1899,
      "mod": 1900,
      "Ġ[\"": 1901,
      "ĠStr": 1902,
      "ULT": 1903,
      "Ġhasattr": 1904,
      "true": 1905,
      "Ġenv": 1906,
      "compile": 1907,
      "Ġarray": 1908,
      "wrap": 1909,
      "Valid": 1910,
      ".\")": 1911,
      "ident": 1912,
      "UP": 1913,
      "Create": 1914,
      "Ġlambda": 1915,
      "ng": 1916,
      "Ġload": 1917,
      "Event": 1918,
      "troller": 1919,
      "={": 1920,
      "comple": 1921,
      "Ġerr": 1922,
      "({": 1923,
      "Ġparse": 1924,
      "conn": 1925,
      "zer": 1926,
      "modules": 1927,
      "NS": 1928,
      "Ġresp": 1929,
      "quire": 1930,
      "imal": 1931,
      "over": 1932,
      "Ġfunc": 1933,
      "Ġarguments": 1934,
      "exception": 1935,
      "TR": 1936,
      "Ġapi": 1937,
      "Ġunicode": 1938,
      "IP": 1939,
      "Ġchar": 1940,
      "Ġdescription": 1941,
      "ategory": 1942,
      "expected": 1943,
      "uthe": 1944,
      "ions": 1945,
      "HTTP": 1946,
      "_(": 1947,
      "40": 1948,
      "29": 1949,
      "try": 1950,
      "Ġinfo": 1951,
      "ĠCo": 1952,
      "87": 1953,
      "logger": 1954,
      "ollow": 1955,
      "Ġfilter": 1956,
      "Ġpackage": 1957,
      "Ġblock": 1958,
      "contrib": 1959,
      "gram": 1960,
      "pression": 1961,
      "unique": 1962,
      "ailed": 1963,
      "ĠKey": 1964,
      "encode": 1965,
      "\"))": 1966,
      "Ġab": 1967,
      "Mock": 1968,
      "uthent": 1969,
      "Ġsp": 1970,
      "gn": 1971,
      "Sh": 1972,
      "des": 1973,
      "uthentic": 1974,
      "called": 1975,
      "Element": 1976,
      "cy": 1977,
      "unicode": 1978,
      "Ġso": 1979,
      "fake": 1980,
      "\">": 1981,
      "Ġmay": 1982,
      "tx": 1983,
      "Server": 1984,
      "GET": 1985,
      "cent": 1986,
      "ĠType": 1987,
      "ient": 1988,
      "Ġheader": 1989,
      "Ġinto": 1990,
      "tree": 1991,
      "Ġte": 1992,
      "offset": 1993,
      "Ġlib": 1994,
      "results": 1995,
      "let": 1996,
      "stop": 1997,
      "callback": 1998,
      "Factory": 1999,
      "Ġexception": 2000,
      "errors": 2001,
      "gh": 2002,
      "ias": 2003,
      "ities": 2004,
      "auto": 2005,
      "Ġar": 2006,
      "Call": 2007,
      "Ġed": 2008,
      "Ġ>=": 2009,
      "Ġ{\"": 2010,
      "iff": 2011,
      "Ġattribute": 2012,
      "Ġbuild": 2013,
      "]))": 2014,
      "site": 2015,
      "ĠUser": 2016,
      "mplemented": 2017,
      "handle": 2018,
      "pping": 2019,
      "Content": 2020,
      "Ġcor": 2021,
      "den": 2022,
      "Ġ'__": 2023,
      "go": 2024,
      "asic": 2025,
      "startswith": 2026,
      "Ġunittest": 2027,
      "Ġold": 2028,
      "ED": 2029,
      "44": 2030,
      "SC": 2031,
      "show": 2032,
      "Ġnext": 2033,
      "By": 2034,
      "Ġeach": 2035,
      "TO": 2036,
      "groups": 2037,
      "DO": 2038,
      "13": 2039,
      "Ġwas": 2040,
      "gex": 2041,
      "88": 2042,
      "ility": 2043,
      "ĠĠĠĠĠ": 2044,
      "ATI": 2045,
      "entry": 2046,
      "%(": 2047,
      "ilder": 2048,
      "ceive": 2049,
      "Ġcase": 2050,
      "Ġlevel": 2051,
      "BooleanField": 2052,
      "idx": 2053,
      "Ġpassword": 2054,
      "VAL": 2055,
      "ices": 2056,
      "opt": 2057,
      "rs": 2058,
      "Connection": 2059,
      "Ġmain": 2060,
      "Ġnetwork": 2061,
      "He": 2062,
      "Ġdist": 2063,
      "dump": 2064,
      "Ġrequired": 2065,
      "stdout": 2066,
      "example": 2067,
      "ators": 2068,
      "les": 2069,
      "Ġcolumn": 2070,
      "UM": 2071,
      "cli": 2072,
      "DateTime": 2073,
      "nap": 2074,
      "Ġoff": 2075,
      "fn": 2076,
      "Ġcallback": 2077,
      "repr": 2078,
      "'\",": 2079,
      "KEY": 2080,
      "ĠK": 2081,
      "exit": 2082,
      "Per": 2083,
      "ined": 2084,
      "60": 2085,
      "nodes": 2086,
      "ell": 2087,
      "utton": 2088,
      "77": 2089,
      "From": 2090,
      "Ġprefix": 2091,
      "Ġthread": 2092,
      "Ġop": 2093,
      "Instance": 2094,
      "Ġmap": 2095,
      "Ġhandler": 2096,
      "EL": 2097,
      "ported": 2098,
      "MS": 2099,
      "\",\"": 2100,
      "Ġap": 2101,
      "Ġmem": 2102,
      "Ġqu": 2103,
      "=(": 2104,
      "permission": 2105,
      "pattern": 2106,
      "lem": 2107,
      "ification": 2108,
      "commit": 2109,
      "driver": 2110,
      "Ġ'--": 2111,
      "Ġ'_": 2112,
      "RL": 2113,
      "Ġtemp": 2114,
      "']:": 2115,
      "FAULT": 2116,
      "sport": 2117,
      "attribute": 2118,
      "lambda": 2119,
      "lot": 2120,
      "prot": 2121,
      "Ġconn": 2122,
      "style": 2123,
      "atures": 2124,
      "volume": 2125,
      "QL": 2126,
      "Ġclo": 2127,
      "Ġ'-": 2128,
      "ĠString": 2129,
      "ear": 2130,
      "hel": 2131,
      "Ġverbose": 2132,
      "SION": 2133,
      "Resource": 2134,
      "Index": 2135,
      "Ġreq": 2136,
      "itive": 2137,
      "State": 2138,
      "application": 2139,
      "ET": 2140,
      "rop": 2141,
      "graph": 2142,
      "ba": 2143,
      "Ġremove": 2144,
      "shot": 2145,
      "latform": 2146,
      "Ġjob": 2147,
      "Al": 2148,
      "Ġ'\\": 2149,
      "termin": 2150,
      "Info": 2151,
      "rary": 2152,
      "Ġlink": 2153,
      "unittest": 2154,
      "only": 2155,
      "conds": 2156,
      "sets": 2157,
      "App": 2158,
      "wd": 2159,
      "OG": 2160,
      "book": 2161,
      "Ġorig": 2162,
      "bytes": 2163,
      "Ġtimeout": 2164,
      "Ġav": 2165,
      "Des": 2166,
      "Ġfin": 2167,
      "exc": 2168,
      "__,": 2169,
      "Ġsetup": 2170,
      "EC": 2171,
      "yn": 2172,
      "ĠĠĠĠĠĠ": 2173,
      "metri": 2174,
      "ĠIN": 2175,
      "PRO": 2176,
      "Ġentry": 2177,
      "Th": 2178,
      "ERROR": 2179,
      "ics": 2180,
      "round": 2181,
      "rit": 2182,
      "(?": 2183,
      "dia": 2184,
      "Service": 2185,
      "ĠAt": 2186,
      "Ġvariable": 2187,
      "Ġmore": 2188,
      "access": 2189,
      "OL": 2190,
      "Ġfind": 2191,
      "au": 2192,
      "Ġnames": 2193,
      "stats": 2194,
      "]),": 2195,
      "Image": 2196,
      "zone": 2197,
      "Dis": 2198,
      "src": 2199,
      "Auth": 2200,
      "Ġnull": 2201,
      "bot": 2202,
      "~~~~": 2203,
      "channel": 2204,
      "va": 2205,
      "tach": 2206,
      "olute": 2207,
      "tags": 2208,
      "Ġaddress": 2209,
      "ek": 2210,
      "tw": 2211,
      "Sub": 2212,
      "SH": 2213,
      "opts": 2214,
      "ultiple": 2215,
      "pol": 2216,
      "utf": 2217,
      "edit": 2218,
      "ixin": 2219,
      "Manager": 2220,
      "oogle": 2221,
      "Ġ12": 2222,
      "login": 2223,
      "rid": 2224,
      "(__": 2225,
      "ason": 2226,
      "ink": 2227,
      "Ġtop": 2228,
      "dest": 2229,
      "ular": 2230,
      "Ġtitle": 2231,
      "SP": 2232,
      "Or": 2233,
      "Ġ--------": 2234,
      "Ġframe": 2235,
      "120": 2236,
      "vider": 2237,
      "Ġreturns": 2238,
      "dered": 2239,
      "pende": 2240,
      "Ġinclude": 2241,
      "plot": 2242,
      "Ġpoint": 2243,
      "ncy": 2244,
      "ship": 2245,
      "Pos": 2246,
      "left": 2247,
      "Ġ200": 2248,
      "Pre": 2249,
      "limit": 2250,
      "sm": 2251,
      "backend": 2252,
      "An": 2253,
      "ful": 2254,
      "dev": 2255,
      "ingle": 2256,
      "Le": 2257,
      "Do": 2258,
      "fl": 2259,
      "profile": 2260,
      "gg": 2261,
      "Out": 2262,
      "bind": 2263,
      "75": 2264,
      "abs": 2265,
      "insert": 2266,
      "addr": 2267,
      "classmethod": 2268,
      "Version": 2269,
      "ummy": 2270,
      "Parser": 2271,
      "85": 2272,
      "member": 2273,
      "Ġitems": 2274,
      "Ġlength": 2275,
      "full": 2276,
      "Ġstream": 2277,
      "ĠDE": 2278,
      "untime": 2279,
      "ystem": 2280,
      "70": 2281,
      "26": 2282,
      "position": 2283,
      "Ġwhere": 2284,
      "bl": 2285,
      "pool": 2286,
      "Ġcolor": 2287,
      "Result": 2288,
      "ide": 2289,
      "Ġdomain": 2290,
      "VI": 2291,
      "Ġthen": 2292,
      "clean": 2293,
      "255": 2294,
      "Ġpost": 2295,
      "gment": 2296,
      "children": 2297,
      "Ġident": 2298,
      "\"):": 2299,
      ".,": 2300,
      "dential": 2301,
      "cc": 2302,
      "Action": 2303,
      "Ġkeys": 2304,
      "Query": 2305,
      "ializer": 2306,
      "{}": 2307,
      "ĠHTTP": 2308,
      "mpty": 2309,
      "Ġrandom": 2310,
      "ploy": 2311,
      "ĠUn": 2312,
      "pl": 2313,
      "Ġdirectory": 2314,
      "ik": 2315,
      "ĠAn": 2316,
      "tuple": 2317,
      "factory": 2318,
      "Check": 2319,
      "thread": 2320,
      "Ġexist": 2321,
      "mer": 2322,
      "Number": 2323,
      "Ġwrite": 2324,
      "help": 2325,
      ":]": 2326,
      "okup": 2327,
      "mat": 2328,
      "Ġexc": 2329,
      "diff": 2330,
      "lex": 2331,
      "schema": 2332,
      "__)": 2333,
      "Ġsa": 2334,
      "binary": 2335,
      "reen": 2336,
      "(['": 2337,
      "cted": 2338,
      "\\\"": 2339,
      "Ġim": 2340,
      "buffer": 2341,
      "gest": 2342,
      "FO": 2343,
      "Ġlines": 2344,
      "ES": 2345,
      "cluster": 2346,
      "imp": 2347,
      ":%": 2348,
      "Ġabs": 2349,
      "Ġdocument": 2350,
      "aa": 2351,
      "Ġsw": 2352,
      "forms": 2353,
      "day": 2354,
      "`.": 2355,
      "ports": 2356,
      "Ġutils": 2357,
      "Ġpat": 2358,
      "riter": 2359,
      "DateTimeField": 2360,
      "zy": 2361,
      "assed": 2362,
      "Ġparameters": 2363,
      "sort": 2364,
      "rad": 2365,
      "fin": 2366,
      "Ġrender": 2367,
      "Implemented": 2368,
      "Context": 2369,
      "/%": 2370,
      "decode": 2371,
      "Widget": 2372,
      "git": 2373,
      "Ġ$": 2374,
      "Ġwrap": 2375,
      "less": 2376,
      "Ġdictionary": 2377,
      "odule": 2378,
      "\"],": 2379,
      "socket": 2380,
      "Inter": 2381,
      "annot": 2382,
      "ĠsetUp": 2383,
      "aml": 2384,
      "argv": 2385,
      "Ġreturned": 2386,
      "Run": 2387,
      "wh": 2388,
      "Ġcreated": 2389,
      ")[": 2390,
      "FILE": 2391,
      "Ġexample": 2392,
      "ector": 2393,
      "ĠBase": 2394,
      "storage": 2395,
      "created": 2396,
      "setup": 2397,
      "document": 2398,
      "directory": 2399,
      "SON": 2400,
      "ries": 2401,
      "ĠFor": 2402,
      "ABLE": 2403,
      "total": 2404,
      "\"}),": 2405,
      "Ġ):": 2406,
      "Property": 2407,
      "pace": 2408,
      "]['": 2409,
      "validate": 2410,
      "Ġbot": 2411,
      "cret": 2412,
      "cen": 2413,
      "=['": 2414,
      "prec": 2415,
      "Ġselect": 2416,
      "Many": 2417,
      "Su": 2418,
      "Table": 2419,
      "POST": 2420,
      "ĠRE": 2421,
      "Ġopt": 2422,
      "window": 2423,
      "shared": 2424,
      "Ro": 2425,
      "Ġsame": 2426,
      "kens": 2427,
      "Size": 2428,
      "Ġfail": 2429,
      "imum": 2430,
      "05": 2431,
      "Ġsocket": 2432,
      "skip": 2433,
      "non": 2434,
      "tails": 2435,
      "Ġsearch": 2436,
      "ha": 2437,
      "orig": 2438,
      "Ġoptional": 2439,
      "dified": 2440,
      "vate": 2441,
      "Frame": 2442,
      "users": 2443,
      "ĠCol": 2444,
      "ĠGet": 2445,
      "dim": 2446,
      "Ġpub": 2447,
      "web": 2448,
      "unter": 2449,
      "Ġ\",": 2450,
      "Ġcomple": 2451,
      "HO": 2452,
      "tered": 2453,
      "ĠCom": 2454,
      "ched": 2455,
      "www": 2456,
      "Ġip": 2457,
      "txt": 2458,
      "idd": 2459,
      "Ġcalled": 2460,
      "Ġhandle": 2461,
      "Ġfollow": 2462,
      "Ent": 2463,
      "OK": 2464,
      "Ġrepresent": 2465,
      "sql": 2466,
      "rep": 2467,
      "extension": 2468,
      "(-": 2469,
      "DS": 2470,
      "isted": 2471,
      "Ġge": 2472,
      "coder": 2473,
      "Ġrule": 2474,
      "ĠAPI": 2475,
      "Ġproperty": 2476,
      "comment": 2477,
      "required": 2478,
      "mount": 2479,
      "ĠImport": 2480,
      "anel": 2481,
      "Ġ],": 2482,
      "attributes": 2483,
      "Ġmat": 2484,
      "ATION": 2485,
      "ipe": 2486,
      "hen": 2487,
      "sq": 2488,
      "API": 2489,
      "tenant": 2490,
      "zip": 2491,
      "Ġaccess": 2492,
      "Ġcre": 2493,
      "ASE": 2494,
      "Ġraw": 2495,
      "SER": 2496,
      "words": 2497,
      "Ġsave": 2498,
      "napshot": 2499,
      "cip": 2500,
      "Ġloc": 2501,
      "SO": 2502,
      "tep": 2503,
      "CK": 2504,
      "account": 2505,
      "49": 2506,
      "iddle": 2507,
      "AAAA": 2508,
      "Ġcollection": 2509,
      "ged": 2510,
      "vor": 2511,
      "IG": 2512,
      "Invalid": 2513,
      "Ġerrors": 2514,
      "Ġ',": 2515,
      "Ġdatabase": 2516,
      "ret": 2517,
      "Ġmetadata": 2518,
      "Ġref": 2519,
      "delta": 2520,
      "Ġvar": 2521,
      "ked": 2522,
      "lish": 2523,
      "flags": 2524,
      "For": 2525,
      "VE": 2526,
      "Ġshape": 2527,
      "extend": 2528,
      "On": 2529,
      "https": 2530,
      "PAT": 2531,
      "curity": 2532,
      "Ġinformation": 2533,
      "itional": 2534,
      "pu": 2535,
      "ĠArgs": 2536,
      "axis": 2537,
      "Format": 2538,
      "Map": 2539,
      "AGE": 2540,
      "dtype": 2541,
      "policy": 2542,
      "Ġmeta": 2543,
      "STR": 2544,
      "ĠSet": 2545,
      "Code": 2546,
      "Ġbool": 2547,
      "Reg": 2548,
      "icense": 2549,
      "dirname": 2550,
      "Ġ100": 2551,
      "AG": 2552,
      "loads": 2553,
      "MM": 2554,
      "igration": 2555,
      "dist": 2556,
      "proxy": 2557,
      ".'": 2558,
      "tt": 2559,
      "_,": 2560,
      "ffect": 2561,
      "45": 2562,
      "Tag": 2563,
      "Ġstruct": 2564,
      "quires": 2565,
      "(**": 2566,
      "+)": 2567,
      "Task": 2568,
      "sync": 2569,
      "Ġdtype": 2570,
      "tml": 2571,
      "FOR": 2572,
      "section": 2573,
      "Ġauthor": 2574,
      "Ġdelete": 2575,
      "display": 2576,
      "ZE": 2577,
      "And": 2578,
      "ĠMe": 2579,
      "Mixin": 2580,
      "inst": 2581,
      "ĠNotImplemented": 2582,
      "fd": 2583,
      "23": 2584,
      "Ġ'<": 2585,
      "Ġhash": 2586,
      "sage": 2587,
      "emplate": 2588,
      "]]": 2589,
      "Ġfake": 2590,
      "properties": 2591,
      "ĠĠĠĠĠĠĠ": 2592,
      "69": 2593,
      "ges": 2594,
      "21": 2595,
      "aded": 2596,
      "ride": 2597,
      "ert": 2598,
      "']\"}),": 2599,
      "attrs": 2600,
      "Ġplugin": 2601,
      "09": 2602,
      "widget": 2603,
      "assertFalse": 2604,
      ");": 2605,
      "ould": 2606,
      "79": 2607,
      "stderr": 2608,
      "Ġsome": 2609,
      "ift": 2610,
      "Tests": 2611,
      "Ġimple": 2612,
      "ĠURL": 2613,
      "Ġsend": 2614,
      "duce": 2615,
      "container": 2616,
      "Cache": 2617,
      "straint": 2618,
      "bool": 2619,
      "board": 2620,
      "Ġlimit": 2621,
      "render": 2622,
      "QU": 2623,
      "ĠIP": 2624,
      "With": 2625,
      "Ġnon": 2626,
      "istry": 2627,
      "Ġits": 2628,
      "Ġfull": 2629,
      "================": 2630,
      "fetch": 2631,
      "({'": 2632,
      "Loc": 2633,
      "empty": 2634,
      "allow": 2635,
      "03": 2636,
      "Ġlay": 2637,
      "very": 2638,
      "Ġpassed": 2639,
      "Ġmy": 2640,
      "posit": 2641,
      "Ġxml": 2642,
      "Ġvis": 2643,
      "GI": 2644,
      "side": 2645,
      "Ġparameter": 2646,
      "\"])": 2647,
      "istory": 2648,
      "Ġinst": 2649,
      "role": 2650,
      "vironment": 2651,
      "pha": 2652,
      "wait": 2653,
      "expr": 2654,
      "ocument": 2655,
      "gument": 2656,
      "points": 2657,
      "wise": 2658,
      "Ġemail": 2659,
      "linen": 2660,
      "'^": 2661,
      "entity": 2662,
      "TextField": 2663,
      "public": 2664,
      "olve": 2665,
      "js": 2666,
      "Fla": 2667,
      "ĠImportError": 2668,
      "leep": 2669,
      "Ac": 2670,
      "Ġshow": 2671,
      "Lay": 2672,
      "ranch": 2673,
      "DIR": 2674,
      "Ġafter": 2675,
      "install": 2676,
      "ĠID": 2677,
      "ORT": 2678,
      "step": 2679,
      "Ġglobal": 2680,
      "Ġchannel": 2681,
      "ĠTypeError": 2682,
      "Fe": 2683,
      "layer": 2684,
      "leted": 2685,
      "long": 2686,
      "classes": 2687,
      "oci": 2688,
      "Ġ})": 2689,
      "Ġnodes": 2690,
      "height": 2691,
      "Trans": 2692,
      "protocol": 2693,
      "Ġattributes": 2694,
      "ured": 2695,
      "arnings": 2696,
      "AM": 2697,
      "ze": 2698,
      "olver": 2699,
      "Filter": 2700,
      "tems": 2701,
      "bit": 2702,
      "65": 2703,
      "Ġtests": 2704,
      "rows": 2705,
      "mask": 2706,
      "slug": 2707,
      "owner": 2708,
      "Ġtypes": 2709,
      "mk": 2710,
      "Gener": 2711,
      "term": 2712,
      "disk": 2713,
      "record": 2714,
      "cons": 2715,
      "Ġdevice": 2716,
      "yp": 2717,
      "sv": 2718,
      "ĠSer": 2719,
      "ceptions": 2720,
      "ceback": 2721,
      "Ġcho": 2722,
      "div": 2723,
      "cale": 2724,
      "stract": 2725,
      "Ġrecord": 2726,
      "pository": 2727,
      "Ġyour": 2728,
      "verbose": 2729,
      "icle": 2730,
      "Attribute": 2731,
      "rv": 2732,
      "cast": 2733,
      "ACK": 2734,
      "messages": 2735,
      "success": 2736,
      "parameters": 2737,
      "Ġneed": 2738,
      "Ġoffset": 2739,
      "raises": 2740,
      "Ġtmp": 2741,
      "component": 2742,
      "ĠData": 2743,
      "'][": 2744,
      "sl": 2745,
      "Ġthan": 2746,
      "=_": 2747,
      "Ġ</": 2748,
      "Ġextension": 2749,
      "iod": 2750,
      "cert": 2751,
      "Ġapplication": 2752,
      "Ġusername": 2753,
      "Ġ\"/": 2754,
      "CP": 2755,
      "XT": 2756,
      "Ġsingle": 2757,
      "ceived": 2758,
      "desc": 2759,
      "Ġwidth": 2760,
      "pth": 2761,
      "ĠLOG": 2762,
      "----------------": 2763,
      "utable": 2764,
      "Ġalready": 2765,
      "ĠMo": 2766,
      "Column": 2767,
      "67": 2768,
      "tG": 2769,
      "ws": 2770,
      "rf": 2771,
      "={'": 2772,
      "Ġlong": 2773,
      "stants": 2774,
      "Protocol": 2775,
      "End": 2776,
      "timestamp": 2777,
      "ctx": 2778,
      "columns": 2779,
      "sole": 2780,
      "dt": 2781,
      "Ġnamespace": 2782,
      "CS": 2783,
      "rel": 2784,
      "dec": 2785,
      "Ġsix": 2786,
      "nsor": 2787,
      "ĠName": 2788,
      "GL": 2789,
      "ĠZ": 2790,
      "cul": 2791,
      "38": 2792,
      "Ġdir": 2793,
      "hed": 2794,
      "Ġ\"\\": 2795,
      "mbol": 2796,
      "itch": 2797,
      "gress": 2798,
      "normal": 2799,
      "Ġscript": 2800,
      "Ġ'',": 2801,
      "Ġsrc": 2802,
      "thing": 2803,
      "here": 2804,
      "dices": 2805,
      "eb": 2806,
      "issing": 2807,
      "Ġbeen": 2808,
      "Ġavailable": 2809,
      "Ġqueue": 2810,
      "Ed": 2811,
      "ories": 2812,
      "Ġsorted": 2813,
      "Ġsql": 2814,
      "Ġpk": 2815,
      "HT": 2816,
      "ins": 2817,
      "agent": 2818,
      "ait": 2819,
      "variable": 2820,
      "ĠAttribute": 2821,
      "ĠIt": 2822,
      "cv": 2823,
      "namespace": 2824,
      "ano": 2825,
      "28": 2826,
      "Ġhtml": 2827,
      "Ġfil": 2828,
      "Ġbefore": 2829,
      "Ġsum": 2830,
      "cursor": 2831,
      "ĠNotImplementedError": 2832,
      "Ġconfiguration": 2833,
      "UB": 2834,
      "umerate": 2835,
      "lineno": 2836,
      "Ġstop": 2837,
      "Address": 2838,
      "clear": 2839,
      "Ġtotal": 2840,
      "Ġimp": 2841,
      "ĠAdd": 2842,
      "Ġzip": 2843,
      "ither": 2844,
      "eve": 2845,
      "izer": 2846,
      "Input": 2847,
      "like": 2848,
      "ling": 2849,
      "PATH": 2850,
      "used": 2851,
      "rypt": 2852,
      "Admin": 2853,
      "Py": 2854,
      "Window": 2855,
      "__':": 2856,
      "Count": 2857,
      "iddleware": 2858,
      "Ġblank": 2859,
      "train": 2860,
      "gent": 2861,
      "pair": 2862,
      "Logger": 2863,
      "win": 2864,
      "rest": 2865,
      "Ġdown": 2866,
      "Ġreverse": 2867,
      "views": 2868,
      "00000000": 2869,
      "sample": 2870,
      "dot": 2871,
      "ward": 2872,
      "Hel": 2873,
      "Ġbytes": 2874,
      "collection": 2875,
      "Ġcluster": 2876,
      "Ġdebug": 2877,
      "invalid": 2878,
      "selected": 2879,
      "Line": 2880,
      "rate": 2881,
      "loop": 2882,
      "kernel": 2883,
      "dentials": 2884,
      "Ġgraph": 2885,
      "fy": 2886,
      "Ġrequests": 2887,
      "59": 2888,
      "assertIs": 2889,
      "gate": 2890,
      "Status": 2891,
      "cfg": 2892,
      "tact": 2893,
      "cat": 2894,
      "Int": 2895,
      "Ġph": 2896,
      "42": 2897,
      "GS": 2898,
      "eval": 2899,
      "Ġalso": 2900,
      "ferred": 2901,
      "ards": 2902,
      "One": 2903,
      "track": 2904,
      "Ġunder": 2905,
      "[:,": 2906,
      "mi": 2907,
      "compute": 2908,
      "tran": 2909,
      "('\\": 2910,
      "ffix": 2911,
      "andard": 2912,
      "()[": 2913,
      "OF": 2914,
      "All": 2915,
      "Ġfl": 2916,
      "Ġpython": 2917,
      "Ġutil": 2918,
      "known": 2919,
      "weight": 2920,
      "ĠCreate": 2921,
      "('-": 2922,
      "vious": 2923,
      "MI": 2924,
      "ssible": 2925,
      "scope": 2926,
      "af": 2927,
      "INE": 2928,
      "END": 2929,
      "actions": 2930,
      "exceptions": 2931,
      "pid": 2932,
      "real": 2933,
      "Ġauto": 2934,
      "')),": 2935,
      "inition": 2936,
      "ux": 2937,
      "']\",": 2938,
      "PC": 2939,
      "rand": 2940,
      "ools": 2941,
      "Ġmessages": 2942,
      "As": 2943,
      "Ġctx": 2944,
      "Ġdif": 2945,
      "head": 2946,
      "Ġ\".": 2947,
      "vars": 2948,
      "folder": 2949,
      "pay": 2950,
      "Ġmon": 2951,
      "Ġenumerate": 2952,
      "Callback": 2953,
      "inary": 2954,
      "encoding": 2955,
      "unded": 2956,
      "unit": 2957,
      "Down": 2958,
      ".',": 2959,
      "cloud": 2960,
      "OS": 2961,
      "ivity": 2962,
      "most": 2963,
      "rl": 2964,
      "any": 2965,
      "simple": 2966,
      "Ġopts": 2967,
      "VALUE": 2968,
      "ination": 2969,
      "'''": 2970,
      "Found": 2971,
      "('%": 2972,
      "cb": 2973,
      "wer": 2974,
      "ĠSee": 2975,
      "gf": 2976,
      "pers": 2977,
      "matrix": 2978,
      "Ġmethods": 2979,
      "Ġtwo": 2980,
      "Ġsuccess": 2981,
      "Process": 2982,
      "tk": 2983,
      "once": 2984,
      "wner": 2985,
      "Ġprotocol": 2986,
      "terns": 2987,
      "---": 2988,
      "ĠParameters": 2989,
      "cro": 2990,
      "Ġinteger": 2991,
      "sheet": 2992,
      "Ġinstall": 2993,
      "Ġcontrol": 2994,
      "Ġmark": 2995,
      "Of": 2996,
      "wn": 2997,
      "dumps": 2998,
      "pb": 2999,
      "ose": 3000,
      "ueue": 3001,
      "31": 3002,
      "74": 3003,
      "Ġsystem": 3004,
      "liter": 3005,
      "language": 3006,
      "bb": 3007,
      "Ġabsolute": 3008,
      "cm": 3009,
      "CL": 3010,
      "Ġeq": 3011,
      "Ġspace": 3012,
      "ire": 3013,
      "repo": 3014,
      "Be": 3015,
      "Ġaxis": 3016,
      "Ġremote": 3017,
      "remote": 3018,
      "Ġencoding": 3019,
      "ational": 3020,
      "Function": 3021,
      "ian": 3022,
      "cd": 3023,
      "images": 3024,
      "events": 3025,
      "convert": 3026,
      "ĠCh": 3027,
      ")'": 3028,
      "$',": 3029,
      "hook": 3030,
      "ground": 3031,
      "Ġsee": 3032,
      "><": 3033,
      "way": 3034,
      "Ġvolume": 3035,
      "release": 3036,
      "Ġwidget": 3037,
      "Point": 3038,
      "Ġattrs": 3039,
      "secret": 3040,
      "resp": 3041,
      "XX": 3042,
      "Ġconf": 3043,
      "Ġcal": 3044,
      "Ġfinally": 3045,
      "Ġentity": 3046,
      "Ġ20": 3047,
      "Ġadmin": 3048,
      "ric": 3049,
      "xture": 3050,
      "Sy": 3051,
      "xx": 3052,
      "ĠFile": 3053,
      "WOR": 3054,
      "Ġxrange": 3055,
      "filters": 3056,
      "usr": 3057,
      "cr": 3058,
      "tGui": 3059,
      "INT": 3060,
      "buf": 3061,
      "upt": 3062,
      "eq": 3063,
      "okie": 3064,
      "rtype": 3065,
      "chunk": 3066,
      "Ġcontainer": 3067,
      "cap": 3068,
      "Ġstyle": 3069,
      "scale": 3070,
      "Ġcolumns": 3071,
      "ĠLicense": 3072,
      "Ġflags": 3073,
      "Ġ[(": 3074,
      "USER": 3075,
      "Ġprovided": 3076,
      "Ġflag": 3077,
      "ĠPy": 3078,
      "Method": 3079,
      "Ġempty": 3080,
      "some": 3081,
      "Ġthere": 3082,
      "reset": 3083,
      "-%": 3084,
      "IC": 3085,
      "Ġcomponent": 3086,
      "SA": 3087,
      "td": 3088,
      "'\\": 3089,
      "serv": 3090,
      "ily": 3091,
      "ATUS": 3092,
      "ĠTo": 3093,
      ")\",": 3094,
      "DAT": 3095,
      ")\"": 3096,
      "ritems": 3097,
      "provider": 3098,
      "spath": 3099,
      "Len": 3100,
      "uble": 3101,
      "labels": 3102,
      "seq": 3103,
      "YS": 3104,
      "Ġright": 3105,
      "DEFAULT": 3106,
      "ĠCON": 3107,
      "engine": 3108,
      "img": 3109,
      "ĠConstant": 3110,
      "Module": 3111,
      "ĠKeyError": 3112,
      "This": 3113,
      "Returns": 3114,
      "Ġimplement": 3115,
      "master": 3116,
      "ork": 3117,
      "Ġ201": 3118,
      "Ġchunk": 3119,
      "}'.": 3120,
      "Ġdisplay": 3121,
      "Ġclean": 3122,
      ")])": 3123,
      "gor": 3124,
      "alias": 3125,
      "Ġtri": 3126,
      "RA": 3127,
      "Tra": 3128,
      "tended": 3129,
      "database": 3130,
      "Contain": 3131,
      "sted": 3132,
      "ALL": 3133,
      "Ġlocation": 3134,
      "Spec": 3135,
      "(\"%": 3136,
      "urls": 3137,
      "igrations": 3138,
      "safe": 3139,
      "Ġtree": 3140,
      "Ġ----------": 3141,
      "apps": 3142,
      "ffi": 3143,
      "ority": 3144,
      "perime": 3145,
      "Ġurllib": 3146,
      "WN": 3147,
      "ven": 3148,
      "Ġwindow": 3149,
      "idden": 3150,
      "Ġcontaining": 3151,
      "Sche": 3152,
      "Ġwx": 3153,
      "Ġprob": 3154,
      "Oper": 3155,
      "ncies": 3156,
      "ĠST": 3157,
      "SIZE": 3158,
      "vs": 3159,
      "ween": 3160,
      "ram": 3161,
      "Update": 3162,
      "Ġcursor": 3163,
      "Color": 3164,
      "Ġidx": 3165,
      "(('": 3166,
      "tom": 3167,
      "SET": 3168,
      "ithub": 3169,
      "enabled": 3170,
      "cell": 3171,
      ".\\": 3172,
      "sym": 3173,
      "Ġ16": 3174,
      "Ġsubprocess": 3175,
      "ialized": 3176,
      "ĠPer": 3177,
      "std": 3178,
      "istr": 3179,
      "BO": 3180,
      "gl": 3181,
      "ĠĠĠĠĠĠĠĠĠ": 3182,
      "ĠHttp": 3183,
      "Ġ'{": 3184,
      "product": 3185,
      "Ġnow": 3186,
      "PRE": 3187,
      "1111": 3188,
      "dirs": 3189,
      "UTH": 3190,
      "Ġ[])": 3191,
      "route": 3192,
      "Change": 3193,
      "Validation": 3194,
      "uint": 3195,
      "()))": 3196,
      "Port": 3197,
      "gt": 3198,
      "ND": 3199,
      "PA": 3200,
      "Ġ----": 3201,
      "Ġfn": 3202,
      "07": 3203,
      "dr": 3204,
      "batch": 3205,
      "paths": 3206,
      "TIME": 3207,
      "Ġdf": 3208,
      "WS": 3209,
      "lear": 3210,
      "rough": 3211,
      "Child": 3212,
      "etween": 3213,
      "FT": 3214,
      "orter": 3215,
      "gorith": 3216,
      "olution": 3217,
      "}.": 3218,
      "Token": 3219,
      "periment": 3220,
      "card": 3221,
      "itions": 3222,
      "Mem": 3223,
      "tty": 3224,
      "undle": 3225,
      "resources": 3226,
      "06": 3227,
      "UI": 3228,
      "Ġaccount": 3229,
      "year": 3230,
      "generate": 3231,
      "ja": 3232,
      "sec": 3233,
      "cords": 3234,
      "rpc": 3235,
      "ĠDefault": 3236,
      "Ġfailed": 3237,
      "ntax": 3238,
      "Ġexists": 3239,
      "Ġsalt": 3240,
      "short": 3241,
      "Output": 3242,
      "stead": 3243,
      "Ġbackend": 3244,
      "Ġpermission": 3245,
      "bucket": 3246,
      "mean": 3247,
      "XML": 3248,
      "47": 3249,
      "Ġaut": 3250,
      "slice": 3251,
      "Ġactual": 3252,
      "bution": 3253,
      ">'": 3254,
      "Ġfoo": 3255,
      "83": 3256,
      "JE": 3257,
      "med": 3258,
      "iltin": 3259,
      "Ġpay": 3260,
      "report": 3261,
      "Page": 3262,
      "Ġ((": 3263,
      "contents": 3264,
      "nu": 3265,
      "Ġnet": 3266,
      ">\\": 3267,
      "dataset": 3268,
      "ransport": 3269,
      "warning": 3270,
      "Ġmod": 3271,
      "lied": 3272,
      "System": 3273,
      "Ġinterface": 3274,
      ".*": 3275,
      "tex": 3276,
      "()),": 3277,
      "hs": 3278,
      "Option": 3279,
      "sleep": 3280,
      "Dir": 3281,
      "ability": 3282,
      "Ġtrue": 3283,
      "Ġnormal": 3284,
      "hell": 3285,
      "duler": 3286,
      "Read": 3287,
      "mar": 3288,
      "none": 3289,
      "Ġschema": 3290,
      "Ġpla": 3291,
      "Ġforms": 3292,
      ":'": 3293,
      "Struct": 3294,
      "changed": 3295,
      "BUG": 3296,
      "``.": 3297,
      "Start": 3298,
      "score": 3299,
      "controller": 3300,
      "DF": 3301,
      "light": 3302,
      "Ut": 3303,
      "ince": 3304,
      "ia": 3305,
      "lookup": 3306,
      "interface": 3307,
      "include": 3308,
      "Ġstdout": 3309,
      "Pa": 3310,
      "ero": 3311,
      "atic": 3312,
      "ptr": 3313,
      "Plugin": 3314,
      "Open": 3315,
      "returns": 3316,
      "Tree": 3317,
      "ĠNo": 3318,
      "Ġcons": 3319,
      "Ph": 3320,
      "Ġsimple": 3321,
      "utron": 3322,
      "rection": 3323,
      "TEST": 3324,
      "ee": 3325,
      "95": 3326,
      "Ġpatch": 3327,
      "ĠMock": 3328,
      "PL": 3329,
      "Ġstep": 3330,
      "Ġob": 3331,
      "Ġeither": 3332,
      "AND": 3333,
      "Ġlike": 3334,
      "umb": 3335,
      "tool": 3336,
      "Back": 3337,
      "rer": 3338,
      "verage": 3339,
      "PS": 3340,
      "keep": 3341,
      "pipe": 3342,
      "********": 3343,
      "INTER": 3344,
      "Ġunique": 3345,
      "reverse": 3346,
      "Clo": 3347,
      "Ġ_('": 3348,
      "Array": 3349,
      "abc": 3350,
      "Ġoperation": 3351,
      "Source": 3352,
      "Ġplt": 3353,
      "defaults": 3354,
      "Ġgenerate": 3355,
      "grid": 3356,
      "Ġcy": 3357,
      "chine": 3358,
      "Ġcfg": 3359,
      "Ġcustom": 3360,
      "Ġleft": 3361,
      "ĠColumn": 3362,
      "bad": 3363,
      "Ġcond": 3364,
      "oly": 3365,
      "ĠAttributeError": 3366,
      "fsm": 3367,
      "gb": 3368,
      "control": 3369,
      "archive": 3370,
      "Ġsection": 3371,
      "LL": 3372,
      "Ġdefined": 3373,
      "Box": 3374,
      "manage": 3375,
      "ants": 3376,
      "force": 3377,
      "Ġprofile": 3378,
      "Dec": 3379,
      "Default": 3380,
      "Ġparsed": 3381,
      "loader": 3382,
      "seconds": 3383,
      "Ġforce": 3384,
      "packages": 3385,
      "testing": 3386,
      "ignore": 3387,
      "free": 3388,
      "hex": 3389,
      "Ġtags": 3390,
      "zeros": 3391,
      "('--": 3392,
      "boot": 3393,
      "uthentication": 3394,
      "pg": 3395,
      "alog": 3396,
      "region": 3397,
      "anization": 3398,
      "ordin": 3399,
      "ored": 3400,
      "Label": 3401,
      "Ġskip": 3402,
      "security": 3403,
      "ish": 3404,
      "staticmethod": 3405,
      "Ġmember": 3406,
      "fit": 3407,
      "LS": 3408,
      "category": 3409,
      "Cur": 3410,
      "na": 3411,
      "Ġconnect": 3412,
      "PT": 3413,
      "iteritems": 3414,
      "ĠApp": 3415,
      "sig": 3416,
      "jobs": 3417,
      "Ġ\"__": 3418,
      "cu": 3419,
      "Ġpossible": 3420,
      "ssl": 3421,
      "If": 3422,
      "Ġvalidate": 3423,
      "asy": 3424,
      "dat": 3425,
      "Ġweb": 3426,
      "features": 3427,
      "Ġdt": 3428,
      "basic": 3429,
      "Options": 3430,
      "font": 3431,
      "_.": 3432,
      "custom": 3433,
      "76": 3434,
      "Ġdistri": 3435,
      "08": 3436,
      "lative": 3437,
      "Ġregister": 3438,
      "Ġexpression": 3439,
      "Ġsite": 3440,
      "54": 3441,
      "ssh": 3442,
      "1234": 3443,
      "rb": 3444,
      "tz": 3445,
      "Argument": 3446,
      "Failed": 3447,
      "Ġfollowing": 3448,
      "ACE": 3449,
      "ĠConfig": 3450,
      "sen": 3451,
      "CI": 3452,
      "Ġpick": 3453,
      "Ġcli": 3454,
      "Ġusers": 3455,
      "redirect": 3456,
      "gnore": 3457,
      "Ġkw": 3458,
      "logging": 3459,
      "Ġbegin": 3460,
      "__.": 3461,
      "_)": 3462,
      "ĠOr": 3463,
      "global": 3464,
      "Ġstack": 3465,
      "uter": 3466,
      "Ġdec": 3467,
      "gments": 3468,
      "Ġ_(\"": 3469,
      "Positive": 3470,
      "month": 3471,
      "pendencies": 3472,
      "Ġcharac": 3473,
      "Exec": 3474,
      "CA": 3475,
      "TEXT": 3476,
      "platform": 3477,
      "ĠList": 3478,
      "verify": 3479,
      "warn": 3480,
      "gger": 3481,
      "Ġprimary": 3482,
      "Ġdetails": 3483,
      "affer": 3484,
      "Ġmatrix": 3485,
      "Ġca": 3486,
      "Ġsecond": 3487,
      "DU": 3488,
      "multi": 3489,
      "modified": 3490,
      "eded": 3491,
      "Ġ'')": 3492,
      "enter": 3493,
      "Ġsequence": 3494,
      "Stream": 3495,
      "ĠEn": 3496,
      "48": 3497,
      "'\"": 3498,
      "Ġredirect": 3499,
      "Ġstats": 3500,
      "ĠJSON": 3501,
      "Ġinstead": 3502,
      "ae": 3503,
      "Ġsupport": 3504,
      "Ġoriginal": 3505,
      "ench": 3506,
      "services": 3507,
      "Button": 3508,
      "MD": 3509,
      ")*": 3510,
      "`,": 3511,
      "FORM": 3512,
      "assertIn": 3513,
      "QUE": 3514,
      "tack": 3515,
      "VERSION": 3516,
      "Ġsent": 3517,
      "flag": 3518,
      "literals": 3519,
      "stener": 3520,
      "PORT": 3521,
      "getLogger": 3522,
      "Ġtwisted": 3523,
      "should": 3524,
      "parts": 3525,
      "Ġcomment": 3526,
      "Ġsm": 3527,
      "Ġdisk": 3528,
      "lector": 3529,
      "Ġeval": 3530,
      "/',": 3531,
      "Ġjoin": 3532,
      "Ġadded": 3533,
      "interval": 3534,
      "CRE": 3535,
      "virt": 3536,
      "Ġdataset": 3537,
      "Ġrep": 3538,
      "ases": 3539,
      "Ġsort": 3540,
      "Entry": 3541,
      "Ġcontents": 3542,
      "salt": 3543,
      "oriz": 3544,
      "docs": 3545,
      "TED": 3546,
      "(%": 3547,
      "78": 3548,
      "Network": 3549,
      "button": 3550,
      "Ġ])": 3551,
      "Ġproperties": 3552,
      "serialize": 3553,
      "Ġbetween": 3554,
      "HI": 3555,
      "chemy": 3556,
      "MAX": 3557,
      "')(": 3558,
      "Ġ,": 3559,
      "hostname": 3560,
      ",)": 3561,
      "ested": 3562,
      "Ġgo": 3563,
      "Session": 3564,
      "NE": 3565,
      "tc": 3566,
      "ural": 3567,
      "ixed": 3568,
      "usage": 3569,
      "ROM": 3570,
      "Ġcontains": 3571,
      "az": 3572,
      "untimeError": 3573,
      "mpt": 3574,
      "ancel": 3575,
      "reque": 3576,
      "deo": 3577,
      "Ġheight": 3578,
      "regex": 3579,
      "chain": 3580,
      "\").": 3581,
      "compat": 3582,
      "Ġconst": 3583,
      "deploy": 3584,
      "46": 3585,
      "added": 3586,
      "Ġposition": 3587,
      "WA": 3588,
      "ferent": 3589,
      "fp": 3590,
      "PAR": 3591,
      "Ġwarnings": 3592,
      "localhost": 3593,
      "github": 3594,
      "HER": 3595,
      "Ġsample": 3596,
      "super": 3597,
      "prop": 3598,
      "Ġpool": 3599,
      "grad": 3600,
      "math": 3601,
      "ier": 3602,
      "Ġbar": 3603,
      "/'": 3604,
      "Ġwhether": 3605,
      "LOG": 3606,
      "Ġexpect": 3607,
      "Ġpattern": 3608,
      "__()": 3609,
      "Ġrelated": 3610,
      "ĠGaffer": 3611,
      "ificate": 3612,
      "ĠComp": 3613,
      "Project": 3614,
      "Ġfp": 3615,
      "Ġ15": 3616,
      "plugins": 3617,
      "home": 3618,
      "csv": 3619,
      "links": 3620,
      "Var": 3621,
      "My": 3622,
      "itu": 3623,
      "Ġ\"--": 3624,
      "medi": 3625,
      "Ġmultiple": 3626,
      "gether": 3627,
      "sd": 3628,
      "Build": 3629,
      "initial": 3630,
      "sgi": 3631,
      "raise": 3632,
      "Ġiss": 3633,
      "Act": 3634,
      "fname": 3635,
      "flush": 3636,
      "OUT": 3637,
      "ways": 3638,
      "gorithm": 3639,
      "Ġreport": 3640,
      "Ġinitial": 3641,
      "Rel": 3642,
      "spect": 3643,
      "kind": 3644,
      "Ġ11": 3645,
      "sk": 3646,
      "Sto": 3647,
      "sha": 3648,
      "bound": 3649,
      "aly": 3650,
      "9999": 3651,
      "mapping": 3652,
      "\\'": 3653,
      "private": 3654,
      "Ġtheano": 3655,
      "New": 3656,
      "ado": 3657,
      "ĠRequest": 3658,
      "ming": 3659,
      "after": 3660,
      "Target": 3661,
      ")',": 3662,
      "MIN": 3663,
      "lim": 3664,
      "faces": 3665,
      "LECT": 3666,
      "fra": 3667,
      "Ġlate": 3668,
      "ULL": 3669,
      "Template": 3670,
      "Ġuri": 3671,
      "``,": 3672,
      "ĠMeta": 3673,
      "amily": 3674,
      "Control": 3675,
      "feed": 3676,
      "Ġinstances": 3677,
      "inx": 3678,
      "Ġ{})": 3679,
      "Ġcore": 3680,
      "Ġ\"-": 3681,
      "rove": 3682,
      "404": 3683,
      "PER": 3684,
      "seed": 3685,
      "ĠImage": 3686,
      "cessed": 3687,
      "ĠVer": 3688,
      "Ġcommit": 3689,
      "ĠYou": 3690,
      "ONE": 3691,
      "tasks": 3692,
      "ii": 3693,
      "Ġuuid": 3694,
      "rules": 3695,
      "Ġtake": 3696,
      "Ġpair": 3697,
      "false": 3698,
      "memory": 3699,
      "indent": 3700,
      "PY": 3701,
      "lite": 3702,
      "ferences": 3703,
      "ug": 3704,
      "ĠAl": 3705,
      "Ġag": 3706,
      "ĠOR": 3707,
      "Ġglob": 3708,
      "GR": 3709,
      "respon": 3710,
      "256": 3711,
      "ines": 3712,
      "Ġrows": 3713,
      "Ġrepr": 3714,
      "Ġstrings": 3715,
      "96": 3716,
      "Ġretri": 3717,
      "Queue": 3718,
      "Ġbuf": 3719,
      "NotFound": 3720,
      "payload": 3721,
      "sock": 3722,
      "SD": 3723,
      "px": 3724,
      "Ġgl": 3725,
      "MT": 3726,
      "Ġclose": 3727,
      "READ": 3728,
      "transport": 3729,
      "asure": 3730,
      "instances": 3731,
      "ĠOption": 3732,
      "Ġdriver": 3733,
      "require": 3734,
      "\"][\"": 3735,
      "vt": 3736,
      "ftware": 3737,
      "Ġwant": 3738,
      "Ġstri": 3739,
      "OB": 3740,
      "Ġfilters": 3741,
      "Cl": 3742,
      "EV": 3743,
      "upload": 3744,
      "ĠNode": 3745,
      "ops": 3746,
      "Program": 3747,
      "choices": 3748,
      "Ġmetri": 3749,
      "transform": 3750,
      "cene": 3751,
      "upper": 3752,
      "Ġassoci": 3753,
      "subnet": 3754,
      "oauth": 3755,
      "tegr": 3756,
      "Ġsupported": 3757,
      "endswith": 3758,
      "pending": 3759,
      "utes": 3760,
      "Ġctypes": 3761,
      "Ġfunctions": 3762,
      "Ġcallable": 3763,
      "plan": 3764,
      "Host": 3765,
      "Ġ))": 3766,
      "Iter": 3767,
      "angle": 3768,
      "INFO": 3769,
      "Ġstorage": 3770,
      "ĠGener": 3771,
      "128": 3772,
      "mun": 3773,
      "quote": 3774,
      "signal": 3775,
      "proto": 3776,
      "clus": 3777,
      "complete": 3778,
      "Fail": 3779,
      "Jo": 3780,
      "imen": 3781,
      "Ġassign": 3782,
      "Ġpipe": 3783,
      "Ġinvalid": 3784,
      "STATUS": 3785,
      "Link": 3786,
      "Ġreplace": 3787,
      "Ġexisting": 3788,
      "resses": 3789,
      "ĠStringIO": 3790,
      "()]": 3791,
      "PUT": 3792,
      "Ġkind": 3793,
      "Ġcommon": 3794,
      "pare": 3795,
      "pick": 3796,
      "Ġwithout": 3797,
      "unch": 3798,
      "Graph": 3799,
      "tab": 3800,
      "Met": 3801,
      "samples": 3802,
      "Ref": 3803,
      "SL": 3804,
      "ace": 3805,
      "attach": 3806,
      "Ġthey": 3807,
      "inputs": 3808,
      "rowser": 3809,
      ":\\": 3810,
      "Length": 3811,
      "Ġkeyword": 3812,
      "second": 3813,
      "Ġevents": 3814,
      "__.__": 3815,
      "ĠNote": 3816,
      "history": 3817,
      "numpy": 3818,
      "roy": 3819,
      "Ġ\"\",": 3820,
      "Thread": 3821,
      "Ġdefaults": 3822,
      "Ġsetting": 3823,
      "wx": 3824,
      "servers": 3825,
      "Ġbased": 3826,
      "Ġcert": 3827,
      "apter": 3828,
      ".%": 3829,
      "mac": 3830,
      "ished": 3831,
      "Ġusage": 3832,
      "abspath": 3833,
      "Ġimg": 3834,
      "ĠTime": 3835,
      "reshold": 3836,
      "Ġspecific": 3837,
      "Ġ->": 3838,
      "ynam": 3839,
      "pendency": 3840,
      "Block": 3841,
      "DER": 3842,
      "gz": 3843,
      "reference": 3844,
      "Ab": 3845,
      "Ġrunning": 3846,
      "Obj": 3847,
      "ĠQtGui": 3848,
      "ĠCommand": 3849,
      "SQL": 3850,
      "Ġdefer": 3851,
      "Ġstore": 3852,
      "57": 3853,
      ":`.": 3854,
      "ĠMy": 3855,
      "Ġsuch": 3856,
      "router": 3857,
      "Ġexpr": 3858,
      "angible": 3859,
      "hy": 3860,
      "Ġtimestamp": 3861,
      "Ġmanager": 3862,
      "']),": 3863,
      "Ġweight": 3864,
      "Ġpayload": 3865,
      "ĠModel": 3866,
      "detail": 3867,
      "licit": 3868,
      "IS": 3869,
      "Ġwait": 3870,
      "Ge": 3871,
      ",'": 3872,
      "Ġreal": 3873,
      "imension": 3874,
      "\"].": 3875,
      "precated": 3876,
      "Ġ%}": 3877,
      "(\\": 3878,
      "Http": 3879,
      "Pri": 3880,
      "Ġlock": 3881,
      "Ġspecify": 3882,
      "Ġclasses": 3883,
      "available": 3884,
      "uff": 3885,
      "esca": 3886,
      "ĠSub": 3887,
      "hes": 3888,
      "ĠPO": 3889,
      "Ġignore": 3890,
      "ometry": 3891,
      "Ġplot": 3892,
      "Ġfeature": 3893,
      "90": 3894,
      "NT": 3895,
      "void": 3896,
      "ifest": 3897,
      "ĠOS": 3898,
      "Ġrv": 3899,
      "Ġencode": 3900,
      "Ġbatch": 3901,
      "...": 3902,
      "CC": 3903,
      "Ġ'*": 3904,
      "Ġbind": 3905,
      "scribe": 3906,
      "Ġexit": 3907,
      "this": 3908,
      "endpoint": 3909,
      "andid": 3910,
      "ctype": 3911,
      "Ġsig": 3912,
      "Ne": 3913,
      "subject": 3914,
      "Ġoprot": 3915,
      "Ġcompute": 3916,
      "ĠDEFAULT": 3917,
      "Buffer": 3918,
      "vals": 3919,
      "UID": 3920,
      "agic": 3921,
      "Ġparts": 3922,
      "Ġ(%": 3923,
      "ils": 3924,
      "Ġsignal": 3925,
      "uted": 3926,
      "Ġreason": 3927,
      "(\"/": 3928,
      "fill": 3929,
      "Ġdifferent": 3930,
      ",))": 3931,
      "Ġseconds": 3932,
      "Ġattrib": 3933,
      "Ġtrain": 3934,
      "}}": 3935,
      "series": 3936,
      "center": 3937,
      "ping": 3938,
      "Ġlanguage": 3939,
      "ava": 3940,
      "IM": 3941,
      "Ġthem": 3942,
      "dc": 3943,
      "Ġscope": 3944,
      "Ġtokens": 3945,
      "Ġbuffer": 3946,
      "Init": 3947,
      "97": 3948,
      "decor": 3949,
      "Ġmath": 3950,
      "edge": 3951,
      "sn": 3952,
      "loaded": 3953,
      "ordering": 3954,
      "COL": 3955,
      "Ġfactory": 3956,
      "Ġexceptions": 3957,
      "Ġproxy": 3958,
      "Ġdecor": 3959,
      "spe": 3960,
      "Ġmer": 3961,
      "Ġmapping": 3962,
      "Ġallowed": 3963,
      "ynamic": 3964,
      "}\".": 3965,
      "Ġmp": 3966,
      "[:-": 3967,
      "tables": 3968,
      "Ġdiff": 3969,
      "Ġreference": 3970,
      "Ġsetattr": 3971,
      "Ġbeing": 3972,
      "Ġsplit": 3973,
      "nn": 3974,
      "topic": 3975,
      "Level": 3976,
      "served": 3977,
      "Ġmigrations": 3978,
      "Load": 3979,
      "agg": 3980,
      "ustome": 3981,
      "()):": 3982,
      "Ġ-=": 3983,
      "Ġconvert": 3984,
      "uch": 3985,
      "ness": 3986,
      "CODE": 3987,
      "png": 3988,
      "pendent": 3989,
      "Ġwin": 3990,
      "Ġnamed": 3991,
      "basename": 3992,
      "suite": 3993,
      "cf": 3994,
      "DATA": 3995,
      "ĠIO": 3996,
      "missing": 3997,
      "Ġpack": 3998,
      "glob": 3999,
      "perm": 4000,
      "dispatch": 4001,
      "Ġlabels": 4002,
      "Ġcollections": 4003,
      "states": 4004,
      "arted": 4005,
      "EM": 4006,
      "media": 4007,
      "oto": 4008,
      "TypeError": 4009,
      "ToMany": 4010,
      "zero": 4011,
      "ĠLanguage": 4012,
      "NOT": 4013,
      "gettext": 4014,
      "updated": 4015,
      "ĠExample": 4016,
      "istent": 4017,
      "Ġstderr": 4018,
      "Delete": 4019,
      "elements": 4020,
      "Ġindic": 4021,
      "ĠPo": 4022,
      "ĠRa": 4023,
      "permissions": 4024,
      "OM": 4025,
      "utor": 4026,
      "ĠIndex": 4027,
      "meth": 4028,
      "const": 4029,
      "Qt": 4030,
      "identifier": 4031,
      "aff": 4032,
      "ression": 4033,
      "']))": 4034,
      "feature": 4035,
      "CESS": 4036,
      "URE": 4037,
      "lime": 4038,
      "Sp": 4039,
      "~~~~~~~~": 4040,
      "ĠDi": 4041,
      "pkg": 4042,
      "Pass": 4043,
      "builder": 4044,
      "pted": 4045,
      "JECT": 4046,
      "Ġmissing": 4047,
      "firm": 4048,
      "vas": 4049,
      "snapshot": 4050,
      "em": 4051,
      "Ġgen": 4052,
      "Ġvariables": 4053,
      "poch": 4054,
      "Ġindent": 4055,
      "download": 4056,
      "68": 4057,
      "effect": 4058,
      "rm": 4059,
      "commands": 4060,
      "NG": 4061,
      "hosts": 4062,
      "Ġtrack": 4063,
      "layout": 4064,
      "Wrap": 4065,
      ">',": 4066,
      "istration": 4067,
      "byte": 4068,
      "single": 4069,
      "Job": 4070,
      "sure": 4071,
      "deleted": 4072,
      "stf": 4073,
      "assign": 4074,
      "regate": 4075,
      "arguments": 4076,
      "Ġiprot": 4077,
      "Ġabout": 4078,
      "done": 4079,
      "orn": 4080,
      "vmware": 4081,
      "gpy": 4082,
      "Ġexecute": 4083,
      "iver": 4084,
      "Ġstatic": 4085,
      "':'": 4086,
      "optional": 4087,
      "sep": 4088,
      "structor": 4089,
      "iss": 4090,
      "Core": 4091,
      "Variable": 4092,
      "Document": 4093,
      "]*": 4094,
      "Ġpolicy": 4095,
      "lap": 4096,
      "Ġword": 4097,
      "PositiveIntegerField": 4098,
      "metric": 4099,
      "Ġswgpy": 4100,
      "counter": 4101,
      "Ident": 4102,
      "calls": 4103,
      "></": 4104,
      "menu": 4105,
      "TA": 4106,
      "ĠBy": 4107,
      "Range": 4108,
      "123": 4109,
      "setdefault": 4110,
      "Ġrest": 4111,
      "rp": 4112,
      "cription": 4113,
      "uring": 4114,
      "Layout": 4115,
      "Ġelements": 4116,
      "indices": 4117,
      "where": 4118,
      "Ġrel": 4119,
      "unct": 4120,
      "mox": 4121,
      "ADD": 4122,
      "AUTH": 4123,
      "Ġwrit": 4124,
      "Ġmask": 4125,
      "relation": 4126,
      "stfName": 4127,
      "Ġ30": 4128,
      "Ġpublic": 4129,
      "scal": 4130,
      "unds": 4131,
      "ĠText": 4132,
      "bed": 4133,
      "Ġdesc": 4134,
      "alk": 4135,
      "Ġsubject": 4136,
      "escape": 4137,
      ")/": 4138,
      "agicMock": 4139,
      "Ġverify": 4140,
      "Ġchanges": 4141,
      "isc": 4142,
      "css": 4143,
      "Ġ[[": 4144,
      "ĠTE": 4145,
      "before": 4146,
      "alchemy": 4147,
      "zz": 4148,
      "43": 4149,
      "registry": 4150,
      "Ġ//": 4151,
      ")).": 4152,
      "stru": 4153,
      "export": 4154,
      "GB": 4155,
      "itude": 4156,
      "Ġconver": 4157,
      "tokens": 4158,
      "rag": 4159,
      "Min": 4160,
      "isinstance": 4161,
      "Ġplatform": 4162,
      "ValidationError": 4163,
      "ustomer": 4164,
      "Serializer": 4165,
      "IF": 4166,
      "appen": 4167,
      "roll": 4168,
      "fc": 4169,
      "alle": 4170,
      "hello": 4171,
      "ĠCheck": 4172,
      "SSL": 4173,
      "_%": 4174,
      "Bar": 4175,
      "Header": 4176,
      "Proxy": 4177,
      "Param": 4178,
      "proc": 4179,
      "ftp": 4180,
      "ITY": 4181,
      "yaml": 4182,
      "We": 4183,
      "activ": 4184,
      "Ġenvironment": 4185,
      "NUM": 4186,
      "times": 4187,
      "trace": 4188,
      "gative": 4189,
      "qs": 4190,
      "=\\\"": 4191,
      "click": 4192,
      "Ġbucket": 4193,
      "Ġedit": 4194,
      "++": 4195,
      "Ġendpoint": 4196,
      "Float": 4197,
      "Ġregion": 4198,
      "span": 4199,
      "fixture": 4200,
      "ToManyField": 4201,
      "Ġgit": 4202,
      "ĠHttpResponse": 4203,
      "Ġalpha": 4204,
      "tyle": 4205,
      "72": 4206,
      "Permission": 4207,
      "ĠTh": 4208,
      "omatic": 4209,
      "ĠĠĠĠĠĠĠĠĠĠ": 4210,
      "handlers": 4211,
      "Ġcell": 4212,
      "Ġrole": 4213,
      "holder": 4214,
      "Ġexclude": 4215,
      "iases": 4216,
      "Max": 4217,
      "Sign": 4218,
      "fixed": 4219,
      "requires": 4220,
      "Ġtransaction": 4221,
      "tion": 4222,
      "mm": 4223,
      "ĠRuntimeError": 4224,
      "Ġprevious": 4225,
      "wards": 4226,
      "TS": 4227,
      "127": 4228,
      "configuration": 4229,
      "Ġappro": 4230,
      "requests": 4231,
      "AX": 4232,
      "LETE": 4233,
      "merge": 4234,
      "stone": 4235,
      "98": 4236,
      "tick": 4237,
      "scriptor": 4238,
      "dn": 4239,
      "alpha": 4240,
      "aut": 4241,
      "Ġselected": 4242,
      "HOST": 4243,
      "external": 4244,
      "cluded": 4245,
      "ĠWhen": 4246,
      "serve": 4247,
      "ips": 4248,
      "Flag": 4249,
      "arDown": 4250,
      "apply": 4251,
      "Ġwithin": 4252,
      "branch": 4253,
      "drop": 4254,
      "ĠOF": 4255,
      "pages": 4256,
      "days": 4257,
      "STRING": 4258,
      "arge": 4259,
      "ĠOpen": 4260,
      "Store": 4261,
      "Ġrepo": 4262,
      "google": 4263,
      "LINE": 4264,
      "Application": 4265,
      "Ġvari": 4266,
      "identity": 4267,
      "Ġ{},": 4268,
      "aries": 4269,
      "Ġcompile": 4270,
      "]])": 4271,
      "ius": 4272,
      "spaces": 4273,
      "Ġshell": 4274,
      "together": 4275,
      "Warning": 4276,
      "MODE": 4277,
      "eries": 4278,
      "DA": 4279,
      "Search": 4280,
      "mag": 4281,
      "\":\"": 4282,
      "Ġcannot": 4283,
      "Ġtheir": 4284,
      "cing": 4285,
      "Ġsim": 4286,
      "exist": 4287,
      "ĠFROM": 4288,
      "Ġpytest": 4289,
      "Cre": 4290,
      "sequence": 4291,
      "push": 4292,
      "curs": 4293,
      "patterns": 4294,
      "Ġjust": 4295,
      "Ġlookup": 4296,
      "Ġflask": 4297,
      "Ġcorrect": 4298,
      "SM": 4299,
      "istered": 4300,
      "Ġproduct": 4301,
      "Ġcomplete": 4302,
      "blob": 4303,
      "ĠSh": 4304,
      "ĠQu": 4305,
      "publish": 4306,
      "lip": 4307,
      "DEBUG": 4308,
      "Ġ\"{": 4309,
      "Ġcategory": 4310,
      "Ġvm": 4311,
      "adding": 4312,
      "ĠDB": 4313,
      "Ġshutil": 4314,
      "Ġpaths": 4315,
      "runner": 4316,
      "vp": 4317,
      "failure": 4318,
      "Storage": 4319,
      "Cannot": 4320,
      "__\":": 4321,
      "Ġslice": 4322,
      "Ġclear": 4323,
      "getattr": 4324,
      "ctions": 4325,
      "components": 4326,
      "ManyToManyField": 4327,
      "]):": 4328,
      "Ġcommands": 4329,
      "exclude": 4330,
      "two": 4331,
      "Ġwho": 4332,
      "utc": 4333,
      "SIG": 4334,
      "flat": 4335,
      "summary": 4336,
      "lack": 4337,
      "mpy": 4338,
      "dify": 4339,
      "cii": 4340,
      "nan": 4341,
      "digest": 4342,
      "running": 4343,
      "Direct": 4344,
      "Ġ-------": 4345,
      "Mode": 4346,
      "uest": 4347,
      "cached": 4348,
      "NR": 4349,
      "Ġoperator": 4350,
      "ialog": 4351,
      "lab": 4352,
      "Ġrelease": 4353,
      "ĠLog": 4354,
      ":`~": 4355,
      "nsure": 4356,
      "support": 4357,
      "FIG": 4358,
      "Ġactive": 4359,
      "Ġnova": 4360,
      "arm": 4361,
      "ables": 4362,
      "->": 4363,
      "58": 4364,
      "Top": 4365,
      "1000": 4366,
      "ĠError": 4367,
      "Ġtraceback": 4368,
      "Ġhow": 4369,
      "Bad": 4370,
      "oid": 4371,
      "Ġthreading": 4372,
      "Device": 4373,
      "Ġ\"<": 4374,
      "expi": 4375,
      "Parse": 4376,
      "Ġtempfile": 4377,
      "Unless": 4378,
      "RAN": 4379,
      "Ġreactor": 4380,
      "Ġpoints": 4381,
      "Programming": 4382,
      "distri": 4383,
      "Part": 4384,
      "Ġmaster": 4385,
      "lb": 4386,
      "53": 4387,
      "choice": 4388,
      "enu": 4389,
      "Ġprovider": 4390,
      "mbed": 4391,
      "reason": 4392,
      "depth": 4393,
      "havi": 4394,
      "helper": 4395,
      "OD": 4396,
      "Ġwrapper": 4397,
      "lazy": 4398,
      ",),": 4399,
      "uplic": 4400,
      "Ġfinal": 4401,
      "extract": 4402,
      "Ġotherwise": 4403,
      "Ġupdated": 4404,
      "cpu": 4405,
      "revision": 4406,
      "norm": 4407,
      ".\",": 4408,
      "Ġmatches": 4409,
      "hq": 4410,
      "rive": 4411,
      "(\"\\": 4412,
      "Def": 4413,
      "Ġlogin": 4414,
      "Deferred": 4415,
      "cookie": 4416,
      "MAP": 4417,
      "MPL": 4418,
      "ilities": 4419,
      "generator": 4420,
      "Ġgoogle": 4421,
      "worker": 4422,
      "Ax": 4423,
      "SU": 4424,
      "ĠAuth": 4425,
      "Exist": 4426,
      "ANG": 4427,
      "QUEST": 4428,
      "Ġio": 4429,
      "Component": 4430,
      "\"'": 4431,
      "]+": 4432,
      "Ġpop": 4433,
      "uting": 4434,
      "ota": 4435,
      "Ġchildren": 4436,
      ")(": 4437,
      "Ġshared": 4438,
      "Ġgroups": 4439,
      "suffix": 4440,
      "scape": 4441,
      ")],": 4442,
      "RY": 4443,
      "Ġfont": 4444,
      "cos": 4445,
      "just": 4446,
      ",-": 4447,
      "FIX": 4448,
      "ks": 4449,
      "cols": 4450,
      "Ġmulti": 4451,
      "note": 4452,
      "scheme": 4453,
      "}/": 4454,
      "Ġfolder": 4455,
      "Ġhel": 4456,
      "itter": 4457,
      "82": 4458,
      "Ġtr": 4459,
      "Ġrequire": 4460,
      "lang": 4461,
      "power": 4462,
      "Ġpkg": 4463,
      "dst": 4464,
      "='',": 4465,
      "DATE": 4466,
      "LED": 4467,
      "ones": 4468,
      "Ġchoices": 4469,
      "199": 4470,
      "CF": 4471,
      "ision": 4472,
      "zen": 4473,
      "000000": 4474,
      "ef": 4475,
      "arr": 4476,
      "73": 4477,
      "nb": 4478,
      "Ġhere": 4479,
      "mq": 4480,
      "HERE": 4481,
      "integer": 4482,
      "details": 4483,
      "Ġ[('": 4484,
      "methods": 4485,
      "Ġassociated": 4486,
      "Ġsuite": 4487,
      "UD": 4488,
      "inf": 4489,
      "BE": 4490,
      "ons": 4491,
      "Ġtool": 4492,
      "Layer": 4493,
      "Ġdst": 4494,
      "Ġpe": 4495,
      "035": 4496,
      "Ġpackages": 4497,
      "Account": 4498,
      "workflow": 4499,
      "Ġseq": 4500,
      "Ġupload": 4501,
      "Ġthrough": 4502,
      "AF": 4503,
      "Ġimages": 4504,
      "stub": 4505,
      "extensions": 4506,
      "ube": 4507,
      "fmt": 4508,
      "writer": 4509,
      "bg": 4510,
      "delay": 4511,
      "constants": 4512,
      "Ġoc": 4513,
      "94": 4514,
      "Op": 4515,
      "Ġshort": 4516,
      "WORD": 4517,
      "Ġkeep": 4518,
      "leg": 4519,
      "cla": 4520,
      "Ġbuilder": 4521,
      "ĠERROR": 4522,
      "enable": 4523,
      "ĠInvalid": 4524,
      "fast": 4525,
      "wik": 4526,
      "Ġlibrary": 4527,
      "Schema": 4528,
      "assertNot": 4529,
      "izes": 4530,
      "Ġscale": 4531,
      "Ġcorrespon": 4532,
      "Ġplace": 4533,
      "flavor": 4534,
      "Ġowner": 4535,
      "roid": 4536,
      "Ġstatement": 4537,
      "101": 4538,
      "RC": 4539,
      "crement": 4540,
      "Select": 4541,
      "Ġidentifier": 4542,
      "('.": 4543,
      "ower": 4544,
      "bal": 4545,
      "ars": 4546,
      "xtures": 4547,
      "Ġapply": 4548,
      "ĠDocument": 4549,
      "found": 4550,
      "ords": 4551,
      "NC": 4552,
      "team": 4553,
      "(\"\"\"": 4554,
      "MENT": 4555,
      "SY": 4556,
      "unknown": 4557,
      "targets": 4558,
      "question": 4559,
      "accept": 4560,
      "issue": 4561,
      "Ġdeploy": 4562,
      "setUp": 4563,
      "52": 4564,
      "alth": 4565,
      "LIC": 4566,
      "reader": 4567,
      "Ġlayer": 4568,
      "umeric": 4569,
      "internal": 4570,
      "Doc": 4571,
      "peat": 4572,
      "Ġdat": 4573,
      "dns": 4574,
      "ĠAs": 4575,
      "atio": 4576,
      "Args": 4577,
      "dio": 4578,
      "defined": 4579,
      "wsgi": 4580,
      "Ġvia": 4581,
      "parameter": 4582,
      "ln": 4583,
      "Ġdownload": 4584,
      "sorted": 4585,
      "prob": 4586,
      "Ġ_,": 4587,
      "Ġhand": 4588,
      "ifies": 4589,
      "Ġunit": 4590,
      "ĠClient": 4591,
      "culate": 4592,
      "Ġdatastore": 4593,
      "Ġcap": 4594,
      "Ġthese": 4595,
      "ocker": 4596,
      "ĠSo": 4597,
      "ĠLo": 4598,
      "63": 4599,
      "changes": 4600,
      "dig": 4601,
      "alloc": 4602,
      "sph": 4603,
      "62": 4604,
      "Ġsepar": 4605,
      "ĠTra": 4606,
      "defer": 4607,
      "gpu": 4608,
      "Ġqueryset": 4609,
      "ĠDo": 4610,
      "Policy": 4611,
      "Ġrequires": 4612,
      "Settings": 4613,
      "ĠFI": 4614,
      "lots": 4615,
      "semb": 4616,
      "ving": 4617,
      "ulate": 4618,
      "ence": 4619,
      "ĠField": 4620,
      "period": 4621,
      "ĠUp": 4622,
      "ually": 4623,
      "Ġimplementation": 4624,
      "92": 4625,
      "Ġboth": 4626,
      "xtra": 4627,
      "ascii": 4628,
      "Ġmean": 4629,
      "Does": 4630,
      "Stack": 4631,
      "comments": 4632,
      "Ġenviron": 4633,
      "Ġfeed": 4634,
      "terms": 4635,
      "Ġagain": 4636,
      "Failure": 4637,
      "cesses": 4638,
      "Ġmd": 4639,
      "lue": 4640,
      "poly": 4641,
      "Values": 4642,
      "templates": 4643,
      "ressed": 4644,
      "ifiers": 4645,
      "draw": 4646,
      ")\\": 4647,
      "press": 4648,
      "ĠUse": 4649,
      "Ġ32": 4650,
      "rev": 4651,
      "ĠĠĠĠĠĠĠĠĠĠĠĠ": 4652,
      "lexible": 4653,
      "blue": 4654,
      "Ġalias": 4655,
      "machine": 4656,
      "transaction": 4657,
      "Work": 4658,
      "Ġraised": 4659,
      "entries": 4660,
      "wb": 4661,
      "Ġaddr": 4662,
      "ĠEvent": 4663,
      "locale": 4664,
      "consumer": 4665,
      "TIONS": 4666,
      "creen": 4667,
      "Email": 4668,
      "Ġlayout": 4669,
      "Ġ1000": 4670,
      "ited": 4671,
      "ĠObject": 4672,
      "shell": 4673,
      "ibility": 4674,
      "icro": 4675,
      "library": 4676,
      "dependent": 4677,
      "nova": 4678,
      "Ġcp": 4679,
      "cores": 4680,
      "ĠBu": 4681,
      "Ġ13": 4682,
      "vl": 4683,
      "Ġboolean": 4684,
      "HEAD": 4685,
      "pytest": 4686,
      "signature": 4687,
      "ĠSystem": 4688,
      "Ġtesting": 4689,
      "LY": 4690,
      "Parameter": 4691,
      "ao": 4692,
      "rr": 4693,
      "panel": 4694,
      "Controller": 4695,
      "JSON": 4696,
      "FLA": 4697,
      "')]": 4698,
      "mas": 4699,
      "CONT": 4700,
      "Cons": 4701,
      "Ġns": 4702,
      "_):": 4703,
      "Ġbad": 4704,
      "expand": 4705,
      "Ġfd": 4706,
      "schedule": 4707,
      "ĠForm": 4708,
      "ixel": 4709,
      "Handle": 4710,
      "chron": 4711,
      "Record": 4712,
      "Pool": 4713,
      "Sec": 4714,
      "FC": 4715,
      "SELECT": 4716,
      "visit": 4717,
      "cause": 4718,
      "outer": 4719,
      "Style": 4720,
      "derer": 4721,
      "contains": 4722,
      "dl": 4723,
      "baz": 4724,
      "begin": 4725,
      "vec": 4726,
      "Can": 4727,
      "Access": 4728,
      "ĠTemplate": 4729,
      "ru": 4730,
      "gy": 4731,
      "Ġbyte": 4732,
      "Ġpresent": 4733,
      "VICE": 4734,
      "eff": 4735,
      "Profile": 4736,
      "ilt": 4737,
      "Ġdoesn": 4738,
      "USE": 4739,
      "Ġbinary": 4740,
      "raft": 4741,
      "sity": 4742,
      "Ġsq": 4743,
      "tensor": 4744,
      "=-": 4745,
      "high": 4746,
      "Ġwhat": 4747,
      "Location": 4748,
      "final": 4749,
      "console": 4750,
      "original": 4751,
      "Ġconstants": 4752,
      "ĠDec": 4753,
      "sphinx": 4754,
      "Ġfi": 4755,
      "Ġqs": 4756,
      "Ġfname": 4757,
      "[:]": 4758,
      "bi": 4759,
      "Multi": 4760,
      "lert": 4761,
      "sten": 4762,
      "Redirect": 4763,
      "shed": 4764,
      "VM": 4765,
      "pipeline": 4766,
      "Post": 4767,
      "ART": 4768,
      "ipv": 4769,
      "Ġstandard": 4770,
      "Ġgot": 4771,
      "81": 4772,
      "Ġsympy": 4773,
      "getitem": 4774,
      "Wrapper": 4775,
      "SK": 4776,
      "ĠĠĠĠĠĠĠĠĠĠĠ": 4777,
      "ater": 4778,
      "versions": 4779,
      "switch": 4780,
      "Reference": 4781,
      "Ġ?": 4782,
      "ernel": 4783,
      "GER": 4784,
      "ducer": 4785,
      "ĠDjango": 4786,
      ")')": 4787,
      "expression": 4788,
      "LOW": 4789,
      "rift": 4790,
      "environment": 4791,
      "Ġinputs": 4792,
      "Ġ60": 4793,
      "NY": 4794,
      "inline": 4795,
      "ARN": 4796,
      "Ġcalls": 4797,
      "Ġreset": 4798,
      "Ġ<<": 4799,
      "ĠOn": 4800,
      "Ġart": 4801,
      "translation": 4802,
      "dummy": 4803,
      "hour": 4804,
      "tect": 4805,
      "Interface": 4806,
      "Ġpd": 4807,
      "rozen": 4808,
      "uptools": 4809,
      "almost": 4810,
      "}',": 4811,
      "sqrt": 4812,
      "51": 4813,
      "foreign": 4814,
      "Ġfig": 4815,
      "gno": 4816,
      "Ġ[-": 4817,
      "wrapper": 4818,
      "Off": 4819,
      "ĠSimple": 4820,
      "Collection": 4821,
      "builtin": 4822,
      "ĠStat": 4823,
      "voke": 4824,
      "Ġ14": 4825,
      "Ġrelative": 4826,
      "BL": 4827,
      "see": 4828,
      "ĠTestCase": 4829,
      "iscsi": 4830,
      "failed": 4831,
      "Types": 4832,
      "Ġoperations": 4833,
      "Ġbranch": 4834,
      "Python": 4835,
      "PIPE": 4836,
      "enc": 4837,
      "ĠNumber": 4838,
      "utdown": 4839,
      "Ġdivision": 4840,
      "contact": 4841,
      "outh": 4842,
      "acy": 4843,
      "Metadata": 4844,
      "EXT": 4845,
      "ank": 4846,
      "Ġcould": 4847,
      "rong": 4848,
      "operation": 4849,
      "setting": 4850,
      "Ġdone": 4851,
      "quested": 4852,
      "Panel": 4853,
      "ategories": 4854,
      "orary": 4855,
      "rica": 4856,
      "Ġloop": 4857,
      "Ġequal": 4858,
      "Ġtransform": 4859,
      ",\\": 4860,
      "CAL": 4861,
      "Lib": 4862,
      "enchmark": 4863,
      "Ġbutton": 4864,
      "Ġviews": 4865,
      "Ġhigh": 4866,
      "CONF": 4867,
      "ross": 4868,
      "override": 4869,
      "road": 4870,
      "atom": 4871,
      "visor": 4872,
      "cenari": 4873,
      "strap": 4874,
      "Migration": 4875,
      "Ġrelation": 4876,
      "oll": 4877,
      "retry": 4878,
      "BASE": 4879,
      "tl": 4880,
      "ves": 4881,
      "Ġperform": 4882,
      "Ġ')": 4883,
      "ulk": 4884,
      "subprocess": 4885,
      "Ġuses": 4886,
      "tb": 4887,
      "MPLATE": 4888,
      "cover": 4889,
      "strings": 4890,
      "ye": 4891,
      "Flexible": 4892,
      "lished": 4893,
      "Ġterm": 4894,
      "Match": 4895,
      "Ġbound": 4896,
      "theme": 4897,
      "dm": 4898,
      "configure": 4899,
      "oth": 4900,
      "REQUEST": 4901,
      "backends": 4902,
      "Ġdecode": 4903,
      "Remove": 4904,
      "CONFIG": 4905,
      "/$',": 4906,
      "41": 4907,
      "boo": 4908,
      "IE": 4909,
      "ĠCO": 4910,
      "ĠXML": 4911,
      "BY": 4912,
      "Simple": 4913,
      "Ali": 4914,
      "apping": 4915,
      "Password": 4916,
      "Ġdetermin": 4917,
      "freq": 4918,
      "Ġprev": 4919,
      "elem": 4920,
      "icon": 4921,
      "}'": 4922,
      "Ġmenu": 4923,
      "Ġremoved": 4924,
      "BR": 4925,
      "DoesNot": 4926,
      "Ġagent": 4927,
      "Ġpickle": 4928,
      "xC": 4929,
      "ĠSy": 4930,
      "tence": 4931,
      "Ġattemp": 4932,
      "Middleware": 4933,
      "tle": 4934,
      "Ġinsert": 4935,
      "Ġ).": 4936,
      "FlexibleForeignKey": 4937,
      "FS": 4938,
      "Foo": 4939,
      "refresh": 4940,
      "Ġsock": 4941,
      "amount": 4942,
      "ĠNO": 4943,
      "([\"": 4944,
      "VALID": 4945,
      "ĠFake": 4946,
      "ĠGroup": 4947,
      "pose": 4948,
      "Ġchanged": 4949,
      "metrical": 4950,
      "Ġoutfile": 4951,
      "ROOT": 4952,
      "screen": 4953,
      "Extension": 4954,
      "_:": 4955,
      "ĠIOError": 4956,
      ":])": 4957,
      "Exit": 4958,
      "Lis": 4959,
      "RED": 4960,
      "YY": 4961,
      "Ġ50": 4962,
      "dash": 4963,
      "Container": 4964,
      "curren": 4965,
      "duration": 4966,
      "addCallback": 4967,
      "inv": 4968,
      "cipient": 4969,
      "93": 4970,
      "ading": 4971,
      "operator": 4972,
      "500": 4973,
      ">\"": 4974,
      "Ġgenerated": 4975,
      "ĠSpec": 4976,
      "roles": 4977,
      "uses": 4978,
      "etc": 4979,
      "Ġresources": 4980,
      "vector": 4981,
      "Ġsk": 4982,
      "ĠWe": 4983,
      "ring": 4984,
      "+'": 4985,
      "Ġbecause": 4986,
      ".)": 4987,
      "StringIO": 4988,
      "Rule": 4989,
      "Row": 4990,
      "Ġdimension": 4991,
      "cut": 4992,
      "gi": 4993,
      "statement": 4994,
      "metrics": 4995,
      "Ġinspect": 4996,
      "MB": 4997,
      "ĠtearDown": 4998,
      "ialization": 4999,
      "Names": 5000,
      "Only": 5001,
      "TRI": 5002,
      "cost": 5003,
      "closed": 5004,
      "Ġfetch": 5005,
      "Av": 5006,
      "ORY": 5007,
      "=\"\"": 5008,
      "double": 5009,
      "nx": 5010,
      "('_": 5011,
      "Ġchain": 5012,
      "area": 5013,
      "BC": 5014,
      "Menu": 5015,
      "gre": 5016,
      "href": 5017,
      "members": 5018,
      "Ġengine": 5019,
      "queryset": 5020,
      "ĠHT": 5021,
      "sources": 5022,
      "spar": 5023,
      "when": 5024,
      "Ġlineno": 5025,
      "complex": 5026,
      "player": 5027,
      "big": 5028,
      "constraint": 5029,
      "Builder": 5030,
      "Ġdestination": 5031,
      "condition": 5032,
      "You": 5033,
      "Ġbin": 5034,
      "hd": 5035,
      "ĠDis": 5036,
      "mitted": 5037,
      "Ġanother": 5038,
      "Ġflow": 5039,
      "Ġren": 5040,
      "Ġfailure": 5041,
      "*.": 5042,
      "Ġvisit": 5043,
      "Ġgrad": 5044,
      "Ġsecurity": 5045,
      "cce": 5046,
      "Ġissue": 5047,
      "Ġrepresenting": 5048,
      "ai": 5049,
      "Ġmodules": 5050,
      "hi": 5051,
      "pad": 5052,
      "Ġunt": 5053,
      "okies": 5054,
      "Bounded": 5055,
      "DoesNotExist": 5056,
      "Ġtb": 5057,
      "Desc": 5058,
      "watch": 5059,
      "Loader": 5060,
      "Ġnote": 5061,
      "Ġ42": 5062,
      ":-": 5063,
      "Ġdeleted": 5064,
      "So": 5065,
      "tn": 5066,
      "listener": 5067,
      "ighb": 5068,
      "Ġgenerator": 5069,
      "ony": 5070,
      "Ġdelta": 5071,
      "clar": 5072,
      "Vis": 5073,
      "mc": 5074,
      "Ġmanage": 5075,
      "LD": 5076,
      ":\"": 5077,
      "Ġrepository": 5078,
      "Configuration": 5079,
      "IR": 5080,
      "Sup": 5081,
      "ĠAND": 5082,
      "ups": 5083,
      "using": 5084,
      "ffff": 5085,
      "Ġentries": 5086,
      "Ġinstalled": 5087,
      "factor": 5088,
      "ĠQt": 5089,
      "Files": 5090,
      "async": 5091,
      "outputs": 5092,
      "cwd": 5093,
      "person": 5094,
      "PP": 5095,
      "middleware": 5096,
      "ĠElement": 5097,
      "deredDict": 5098,
      "inja": 5099,
      "hn": 5100,
      "Ġfeatures": 5101,
      "uate": 5102,
      "Ġstd": 5103,
      "absolute": 5104,
      "bounded": 5105,
      "bits": 5106,
      "Ġrad": 5107,
      "Ġsupp": 5108,
      "Cho": 5109,
      "ĠResponse": 5110,
      "Ġmaximum": 5111,
      "review": 5112,
      "andidate": 5113,
      "__['": 5114,
      "ysql": 5115,
      "Ġtimes": 5116,
      "srv": 5117,
      "riend": 5118,
      "Ġcybox": 5119,
      "plain": 5120,
      "DD": 5121,
      "Ġcredentials": 5122,
      "Ġts": 5123,
      "ĠInter": 5124,
      "HA": 5125,
      "cient": 5126,
      "Member": 5127,
      "Ġagg": 5128,
      "connected": 5129,
      "AME": 5130,
      "learn": 5131,
      "([[": 5132,
      "correct": 5133,
      "Ġregex": 5134,
      "pet": 5135,
      "scan": 5136,
      "authentic": 5137,
      "ras": 5138,
      "rot": 5139,
      "ĠTrans": 5140,
      "MAGE": 5141,
      "Ġ\"(('": 5142,
      "ending": 5143,
      "Ġrouter": 5144,
      "Ġinterval": 5145,
      "/')": 5146,
      "alys": 5147,
      "align": 5148,
      "aris": 5149,
      "61": 5150,
      "SV": 5151,
      "counts": 5152,
      "processor": 5153,
      "dh": 5154,
      "progress": 5155,
      "Ġreceived": 5156,
      "Ġstored": 5157,
      "sender": 5158,
      "failUnless": 5159,
      "notation": 5160,
      "digits": 5161,
      "dx": 5162,
      "repository": 5163,
      "HTML": 5164,
      "recv": 5165,
      "'%": 5166,
      "Driver": 5167,
      "alysis": 5168,
      "Ġcat": 5169,
      "expect": 5170,
      "Ġbit": 5171,
      "Ġprop": 5172,
      "'),)\",": 5173,
      "ĠContent": 5174,
      "\"})": 5175,
      "Description": 5176,
      "Big": 5177,
      "validation": 5178,
      "ĠDate": 5179,
      "symmetrical": 5180,
      "ĠMessage": 5181,
      "Ġfalse": 5182,
      "networks": 5183,
      "gc": 5184,
      "named": 5185,
      "Order": 5186,
      "Sm": 5187,
      "ble": 5188,
      "Ġlin": 5189,
      "cipe": 5190,
      "Ġmemory": 5191,
      "SERVER": 5192,
      "Ġ\"_": 5193,
      "grade": 5194,
      "\"/": 5195,
      "velop": 5196,
      "vc": 5197,
      "Ap": 5198,
      "ka": 5199,
      "Ġnullable": 5200,
      "white": 5201,
      "Ġautomatic": 5202,
      "dp": 5203,
      "hand": 5204,
      "ĠSQL": 5205,
      "stim": 5206,
      "Decimal": 5207,
      "uation": 5208,
      "ather": 5209,
      "edges": 5210,
      "Ġrules": 5211,
      "allowed": 5212,
      "ĠSE": 5213,
      "COMM": 5214,
      "Ġ117": 5215,
      "ied": 5216,
      "tener": 5217,
      "Ġsubclass": 5218,
      "Author": 5219,
      "Url": 5220,
      "Ġevery": 5221,
      "rec": 5222,
      "Ġoverride": 5223,
      "71": 5224,
      "got": 5225,
      "NI": 5226,
      "game": 5227,
      "',),": 5228,
      "]+)": 5229,
      "('__": 5230,
      "Ġadditional": 5231,
      "formed": 5232,
      "Ġwould": 5233,
      "Art": 5234,
      "Ġmetavar": 5235,
      "ilar": 5236,
      "distance": 5237,
      "WE": 5238,
      "oneNumber": 5239,
      "etail": 5240,
      "mbols": 5241,
      "('<": 5242,
      "monitor": 5243,
      "Ġedge": 5244,
      "Unknown": 5245,
      "192": 5246,
      "Ġlook": 5247,
      "supported": 5248,
      "Ġflat": 5249,
      "epcopy": 5250,
      "Ġtopic": 5251,
      "GRO": 5252,
      "perly": 5253,
      "Ġmost": 5254,
      "ĠPRO": 5255,
      "Pub": 5256,
      "ua": 5257,
      "wo": 5258,
      "FORMAT": 5259,
      "resolver": 5260,
      "generic": 5261,
      "400": 5262,
      "Ġast": 5263,
      "Tool": 5264,
      "Ġbasestring": 5265,
      "Ġsuccessful": 5266,
      "Owner": 5267,
      "Write": 5268,
      "Ġhttps": 5269,
      "Could": 5270,
      "Ġindices": 5271,
      "ĠHTML": 5272,
      "rays": 5273,
      "unpack": 5274,
      "gnored": 5275,
      "LOCK": 5276,
      "ENSE": 5277,
      "urllib": 5278,
      "vance": 5279,
      "Ġboto": 5280,
      "munic": 5281,
      "LIST": 5282,
      "signed": 5283,
      "xs": 5284,
      "Ġinternal": 5285,
      "amma": 5286,
      "Sw": 5287,
      "Suite": 5288,
      "')[": 5289,
      "ĠDummy": 5290,
      "UND": 5291,
      "Api": 5292,
      "Ġpretty": 5293,
      "cleaned": 5294,
      "ornado": 5295,
      "ndar": 5296,
      "Ġseries": 5297,
      "Ġbest": 5298,
      "DELETE": 5299,
      "Ġrepresentation": 5300,
      "cid": 5301,
      "inger": 5302,
      "Ġalways": 5303,
      "come": 5304,
      "ĠGL": 5305,
      "ĠAS": 5306,
      "Lock": 5307,
      "Ġmime": 5308,
      "Ġhref": 5309,
      "Te": 5310,
      "organization": 5311,
      "${": 5312,
      "seek": 5313,
      "allclose": 5314,
      "Sequence": 5315,
      "'d": 5316,
      "scripts": 5317,
      "Over": 5318,
      "Ġelem": 5319,
      "YPE": 5320,
      "Ġfactor": 5321,
      "Ġpipeline": 5322,
      "RH": 5323,
      "Ġsignature": 5324,
      "Ġattach": 5325,
      "Ġworld": 5326,
      "istics": 5327,
      "ĠEX": 5328,
      "ĠServer": 5329,
      "}\\": 5330,
      "Ġextract": 5331,
      "price": 5332,
      "inder": 5333,
      "uni": 5334,
      "Ġurlparse": 5335,
      "ĠNOT": 5336,
      "AndReturn": 5337,
      "EMA": 5338,
      "{{": 5339,
      "Ġplan": 5340,
      "iso": 5341,
      "steps": 5342,
      "Ġdocumentation": 5343,
      "Ġstructure": 5344,
      "eg": 5345,
      "ĠAd": 5346,
      "ctl": 5347,
      "Encoder": 5348,
      "URI": 5349,
      "Ġslug": 5350,
      "Ġway": 5351,
      "Ġtasks": 5352,
      "requency": 5353,
      "IZ": 5354,
      "execution": 5355,
      "mu": 5356,
      "SHA": 5357,
      "Ġenabled": 5358,
      ":',": 5359,
      "Backend": 5360,
      "91": 5361,
      "Ġdon": 5362,
      "BB": 5363,
      "Ġ24": 5364,
      "servation": 5365,
      "Ass": 5366,
      "ĠModule": 5367,
      "(\"-": 5368,
      "Ob": 5369,
      "Ġactions": 5370,
      "functions": 5371,
      "resolve": 5372,
      "cred": 5373,
      "border": 5374,
      "Ġsuffix": 5375,
      "Ġcontroller": 5376,
      "ĠWHERE": 5377,
      "SCRI": 5378,
      "Domain": 5379,
      "reply": 5380,
      "Ġdraw": 5381,
      "nail": 5382,
      "bundle": 5383,
      "wk": 5384,
      "Num": 5385,
      "Ġtx": 5386,
      "Ġrequested": 5387,
      "logy": 5388,
      "channels": 5389,
      "editor": 5390,
      "Binary": 5391,
      "Transport": 5392,
      "yper": 5393,
      "Ġpid": 5394,
      "Runner": 5395,
      "Ġexpi": 5396,
      "Ġbox": 5397,
      "origin": 5398,
      "abstract": 5399,
      "Ġll": 5400,
      "FE": 5401,
      "Ġscore": 5402,
      "Ġprogram": 5403,
      "segment": 5404,
      "shift": 5405,
      "Volume": 5406,
      "Received": 5407,
      "orizont": 5408,
      "Ġvector": 5409,
      "Attr": 5410,
      "Ġsqlalchemy": 5411,
      "AAAAAAAA": 5412,
      "Edit": 5413,
      "records": 5414,
      "percent": 5415,
      "retri": 5416,
      "../": 5417,
      "fb": 5418,
      "andas": 5419,
      "Ġcookie": 5420,
      "Ġbel": 5421,
      "Ġmatching": 5422,
      "Ġput": 5423,
      "ĠTask": 5424,
      "management": 5425,
      "OI": 5426,
      "Ġtables": 5427,
      "ulation": 5428,
      "visible": 5429,
      "runtime": 5430,
      "isfile": 5431,
      "fun": 5432,
      "ĠTests": 5433,
      "RES": 5434,
      "(':": 5435,
      "ARY": 5436,
      "multiple": 5437,
      "Ġreview": 5438,
      "Ġsets": 5439,
      "Role": 5440,
      "Fi": 5441,
      "Ġproc": 5442,
      "(?:": 5443,
      "[^": 5444,
      "rst": 5445,
      "Ġamount": 5446,
      "sired": 5447,
      "vr": 5448,
      "Ġtab": 5449,
      "ane": 5450,
      "Ġdev": 5451,
      "Ġargparse": 5452,
      "Ġgrid": 5453,
      "Mon": 5454,
      "sim": 5455,
      "projects": 5456,
      "Ġsym": 5457,
      "xc": 5458,
      "Ġatom": 5459,
      "variables": 5460,
      "fficient": 5461,
      "Plan": 5462,
      ",\"": 5463,
      "Look": 5464,
      "break": 5465,
      "Ġsymbol": 5466,
      "Attributes": 5467,
      "Ġmetric": 5468,
      "kit": 5469,
      "BACK": 5470,
      "uman": 5471,
      "sparse": 5472,
      "Ġmany": 5473,
      "ev": 5474,
      "Ġ25": 5475,
      "Ġworker": 5476,
      "credentials": 5477,
      "La": 5478,
      "ĠReg": 5479,
      "Ġmonth": 5480,
      "places": 5481,
      "Ġprovide": 5482,
      "Ġ(-": 5483,
      "DQ": 5484,
      "partial": 5485,
      "(',": 5486,
      "Ġraises": 5487,
      "Results": 5488,
      "CM": 5489,
      "ganization": 5490,
      "Fl": 5491,
      "mapper": 5492,
      "Position": 5493,
      "CTION": 5494,
      "parsed": 5495,
      "cenario": 5496,
      "brl": 5497,
      "ral": 5498,
      "Script": 5499,
      "Ġcharacters": 5500,
      "MAIN": 5501,
      "NET": 5502,
      "ceiver": 5503,
      "ili": 5504,
      "=\"%": 5505,
      "ĠRo": 5506,
      "ĠQuery": 5507,
      "aj": 5508,
      "Width": 5509,
      "roadcast": 5510,
      "lists": 5511,
      "Ġsender": 5512,
      "Ġfill": 5513,
      "executable": 5514,
      "Font": 5515,
      "Ġok": 5516,
      "ĠVersion": 5517,
      "Ġiterable": 5518,
      "Begin": 5519,
      "Ġssl": 5520,
      "ĠAll": 5521,
      "priority": 5522,
      "tester": 5523,
      "Ġpermissions": 5524,
      "ifact": 5525,
      "FIEL": 5526,
      "Ġaccept": 5527,
      "pairs": 5528,
      "Channel": 5529,
      "Ġprivate": 5530,
      "astype": 5531,
      "wt": 5532,
      "ĠArgument": 5533,
      "Ġsafe": 5534,
      "mediate": 5535,
      "igrate": 5536,
      "Ġbasic": 5537,
      "lyph": 5538,
      "Ġsince": 5539,
      "ERS": 5540,
      "alect": 5541,
      "Package": 5542,
      "ĠIS": 5543,
      "Ġprovides": 5544,
      "ĠLoc": 5545,
      "Ġorm": 5546,
      "chan": 5547,
      "Ġtenant": 5548,
      "tract": 5549,
      "keyword": 5550,
      "NN": 5551,
      "Ġescape": 5552,
      "Ġlower": 5553,
      "Ġmerge": 5554,
      "asset": 5555,
      "CES": 5556,
      "ERY": 5557,
      "maining": 5558,
      "velopment": 5559,
      "translate": 5560,
      "Ġzero": 5561,
      "ope": 5562,
      "xel": 5563,
      "SPACE": 5564,
      "codes": 5565,
      "license": 5566,
      "orizontal": 5567,
      "ĠHe": 5568,
      "Ġalgorithm": 5569,
      "reshape": 5570,
      "KS": 5571,
      "PR": 5572,
      "lict": 5573,
      "Ġcs": 5574,
      "CD": 5575,
      "Ġpl": 5576,
      "Ġoauth": 5577,
      "Ġenable": 5578,
      "Ġ''.": 5579,
      "0001": 5580,
      "Ġhead": 5581,
      "decimal": 5582,
      "utation": 5583,
      "567": 5584,
      "mor": 5585,
      "gend": 5586,
      "live": 5587,
      "colors": 5588,
      "Ġmedia": 5589,
      "Local": 5590,
      "prepare": 5591,
      "Ġyear": 5592,
      "Wh": 5593,
      "Ame": 5594,
      "cancel": 5595,
      "ĠMan": 5596,
      "Ġhostname": 5597,
      "Stats": 5598,
      "Ġhook": 5599,
      "many": 5600,
      "ĠRun": 5601,
      "Ġpatterns": 5602,
      "week": 5603,
      "Ġexecution": 5604,
      "rypto": 5605,
      "Agent": 5606,
      "Ġdependencies": 5607,
      "Ġ64": 5608,
      "ĠTType": 5609,
      "WI": 5610,
      "aging": 5611,
      "urity": 5612,
      "Timeout": 5613,
      "Ġblob": 5614,
      "Directory": 5615,
      "Ġdecorator": 5616,
      "gon": 5617,
      "getvalue": 5618,
      "/{": 5619,
      "arange": 5620,
      "pture": 5621,
      "Ġpr": 5622,
      "appengine": 5623,
      "ivar": 5624,
      "Ġ255": 5625,
      "Ġperiod": 5626,
      "cmp": 5627,
      "Ġids": 5628,
      "isdir": 5629,
      "sin": 5630,
      "uplicate": 5631,
      "ula": 5632,
      "ategy": 5633,
      "Provider": 5634,
      "inner": 5635,
      "bosity": 5636,
      "notify": 5637,
      "UST": 5638,
      "Ġfit": 5639,
      "cel": 5640,
      "Ġcorresponding": 5641,
      "Regex": 5642,
      "Del": 5643,
      "ĠTable": 5644,
      "Hash": 5645,
      "herit": 5646,
      "Ġnumbers": 5647,
      "ays": 5648,
      "lev": 5649,
      "Ġdefinition": 5650,
      "Ġmail": 5651,
      "Ġ{}),": 5652,
      "ITH": 5653,
      "cursive": 5654,
      "Ġduring": 5655,
      "2000": 5656,
      "Dialog": 5657,
      "pus": 5658,
      "Ġcompat": 5659,
      "Ġdump": 5660,
      "timezone": 5661,
      "509": 5662,
      "Temp": 5663,
      "ldap": 5664,
      "Ġextensions": 5665,
      "Ġscal": 5666,
      "Ġtermin": 5667,
      "Ġsubnet": 5668,
      "Database": 5669,
      "fr": 5670,
      "processing": 5671,
      "sb": 5672,
      "Ġ'\"": 5673,
      "ives": 5674,
      "ĠProtocol": 5675,
      "specs": 5676,
      "Ġflavor": 5677,
      "internet": 5678,
      "Ġdistribution": 5679,
      "{%": 5680,
      "alg": 5681,
      "ĠResource": 5682,
      "green": 5683,
      "1024": 5684,
      "Ġwords": 5685,
      "Ġday": 5686,
      "units": 5687,
      "abilities": 5688,
      "Ġpartic": 5689,
      "dicate": 5690,
      "ĠBo": 5691,
      "Ġenc": 5692,
      "Web": 5693,
      "assertIsInstance": 5694,
      "STATE": 5695,
      "Ġlocale": 5696,
      "umbnail": 5697,
      "ftime": 5698,
      "mension": 5699,
      "sli": 5700,
      "vide": 5701,
      "hidden": 5702,
      "Import": 5703,
      "Ġzone": 5704,
      "Ġtz": 5705,
      "family": 5706,
      "ACHE": 5707,
      "inel": 5708,
      "Ġdeprecated": 5709,
      "heet": 5710,
      "bat": 5711,
      "dimension": 5712,
      "(\"--": 5713,
      "Formatter": 5714,
      "ĠInteger": 5715,
      "cluding": 5716,
      "mg": 5717,
      "amera": 5718,
      "Ġexport": 5719,
      "APP": 5720,
      "================================": 5721,
      "clone": 5722,
      "Ġtimedelta": 5723,
      "matches": 5724,
      "bile": 5725,
      "IND": 5726,
      "dy": 5727,
      "ĠService": 5728,
      "emit": 5729,
      "Ret": 5730,
      "Ġchart": 5731,
      "CHAR": 5732,
      "separ": 5733,
      "qt": 5734,
      "TYPES": 5735,
      "redis": 5736,
      "selection": 5737,
      "Writer": 5738,
      "CR": 5739,
      "',)": 5740,
      "unctools": 5741,
      "bove": 5742,
      "ZZ": 5743,
      "bob": 5744,
      "ializers": 5745,
      "2014": 5746,
      "lon": 5747,
      "Ġsnapshot": 5748,
      "stdin": 5749,
      "Ġneeded": 5750,
      "ĠExamples": 5751,
      "Helper": 5752,
      "ĠTEST": 5753,
      "cn": 5754,
      "AV": 5755,
      "__(*": 5756,
      "Ġrunner": 5757,
      "scriptions": 5758,
      "Nodes": 5759,
      "America": 5760,
      "Root": 5761,
      "Feed": 5762,
      "chor": 5763,
      "sertion": 5764,
      "veloper": 5765,
      "stmt": 5766,
      "Ġpairs": 5767,
      "Ġcv": 5768,
      "ga": 5769,
      "LOAD": 5770,
      "bum": 5771,
      "Ġroute": 5772,
      "Ġensure": 5773,
      "EW": 5774,
      "IST": 5775,
      "neutron": 5776,
      "MPLE": 5777,
      "pm": 5778,
      "Ġneutron": 5779,
      "Ġfast": 5780,
      "ĠRaises": 5781,
      "allback": 5782,
      "Ġoutputs": 5783,
      "UNT": 5784,
      "submit": 5785,
      "plotlib": 5786,
      "ateway": 5787,
      "havior": 5788,
      "boolean": 5789,
      "TABLE": 5790,
      "deli": 5791,
      "cording": 5792,
      "Ġcurrently": 5793,
      "Reader": 5794,
      "/(?": 5795,
      "Ġcla": 5796,
      "001": 5797,
      "experiment": 5798,
      "logs": 5799,
      "Listener": 5800,
      "Ġconsumer": 5801,
      "ĠCopy": 5802,
      "Operation": 5803,
      "VarInt": 5804,
      "dims": 5805,
      "Parent": 5806,
      "partition": 5807,
      "Constraint": 5808,
      "CY": 5809,
      "WW": 5810,
      "Unit": 5811,
      "DataCache": 5812,
      "BER": 5813,
      "teri": 5814,
      "Pr": 5815,
      "XY": 5816,
      "Topic": 5817,
      "pw": 5818,
      "Ġtyp": 5819,
      "Ġscheme": 5820,
      "PH": 5821,
      "layers": 5822,
      "destroy": 5823,
      "timer": 5824,
      "Ġsure": 5825,
      "impl": 5826,
      "arison": 5827,
      "destination": 5828,
      "ANCE": 5829,
      "aving": 5830,
      "Report": 5831,
      "yes": 5832,
      "prev": 5833,
      "readline": 5834,
      "cipy": 5835,
      "contenttypes": 5836,
      "ĠInstance": 5837,
      "Ġtransport": 5838,
      "Ġdispatch": 5839,
      "ENTI": 5840,
      "Allow": 5841,
      "II": 5842,
      "Exp": 5843,
      "scalar": 5844,
      "Ġautomatically": 5845,
      "*(": 5846,
      "Ġeditor": 5847,
      "Hello": 5848,
      "mime": 5849,
      "moves": 5850,
      "Ġwriter": 5851,
      "Fake": 5852,
      "mult": 5853,
      "Ġside": 5854,
      "ĠOSError": 5855,
      "exer": 5856,
      "Ġyaml": 5857,
      "Opt": 5858,
      "Ġprogress": 5859,
      "Ġtick": 5860,
      "Ġcb": 5861,
      "props": 5862,
      "floating": 5863,
      "Matrix": 5864,
      "=_(\"": 5865,
      "seg": 5866,
      "00000": 5867,
      "fire": 5868,
      "Ġconstraint": 5869,
      "smp": 5870,
      "threshold": 5871,
      "eds": 5872,
      "onical": 5873,
      "fixtures": 5874,
      "Ġur": 5875,
      "Ġhttplib": 5876,
      "enum": 5877,
      "Ġcoordin": 5878,
      "poll": 5879,
      "Ġcharacter": 5880,
      "Ġuntil": 5881,
      "Ġlocals": 5882,
      "Ġneeds": 5883,
      "Ġtakes": 5884,
      "yy": 5885,
      "Err": 5886,
      "[(": 5887,
      "RF": 5888,
      "bra": 5889,
      "wall": 5890,
      "ĠOther": 5891,
      "ĠDecimal": 5892,
      "mous": 5893,
      "definition": 5894,
      "gp": 5895,
      "Ġ\"\"\")": 5896,
      "{\"": 5897,
      "Ġspecial": 5898,
      "Ġpi": 5899,
      "PREFIX": 5900,
      "Ġdistance": 5901,
      "Display": 5902,
      ">`": 5903,
      "prog": 5904,
      "bottom": 5905,
      "follow": 5906,
      "symbol": 5907,
      "Ġtensor": 5908,
      "openstack": 5909,
      "interfaces": 5910,
      "RITE": 5911,
      "previous": 5912,
      "Ġloader": 5913,
      "sens": 5914,
      "argin": 5915,
      "Ġthose": 5916,
      "Ġorigin": 5917,
      "fh": 5918,
      "Copy": 5919,
      "Ġ&&": 5920,
      "Ġds": 5921,
      "Ġdirection": 5922,
      "Ġargv": 5923,
      "300": 5924,
      "ORS": 5925,
      "Ġappend": 5926,
      "ike": 5927,
      "bd": 5928,
      "vn": 5929,
      "Ġnorm": 5930,
      "connections": 5931,
      "Ġ}}": 5932,
      "Ġcounter": 5933,
      "reater": 5934,
      "Ip": 5935,
      "Ġserialize": 5936,
      "vely": 5937,
      "Has": 5938,
      "Socket": 5939,
      "quiv": 5940,
      "BA": 5941,
      "antity": 5942,
      "Params": 5943,
      "Ġfree": 5944,
      "Stop": 5945,
      "UG": 5946,
      "Ġbits": 5947,
      "Ġ${": 5948,
      "PhoneNumber": 5949,
      "Ġprec": 5950,
      "Ġmapper": 5951,
      "\"\\": 5952,
      "tile": 5953,
      "chart": 5954,
      "zA": 5955,
      "Ġ{%": 5956,
      "Bind": 5957,
      "Ġ1024": 5958,
      "Ġlow": 5959,
      "processed": 5960,
      "ancer": 5961,
      "Ġrecords": 5962,
      "DEF": 5963,
      "Ġsegment": 5964,
      "Ġidentity": 5965,
      "world": 5966,
      "Detail": 5967,
      "aller": 5968,
      "ko": 5969,
      "direction": 5970,
      "Entity": 5971,
      "klass": 5972,
      "latest": 5973,
      "Ġitertools": 5974,
      "Tab": 5975,
      "irc": 5976,
      "gateway": 5977,
      "pdf": 5978,
      "Ġdirectly": 5979,
      "QP": 5980,
      "gid": 5981,
      "Ġwere": 5982,
      "Ġcached": 5983,
      "Ġdecimal": 5984,
      "pred": 5985,
      "Ġperm": 5986,
      "MIT": 5987,
      "Environment": 5988,
      "gu": 5989,
      "ĠConnection": 5990,
      "inc": 5991,
      "Ġcomponents": 5992,
      "SES": 5993,
      "Ġcsv": 5994,
      "istic": 5995,
      "Ġsouth": 5996,
      "mongo": 5997,
      "Ġ[{'": 5998,
      "Ġconsole": 5999,
      "ĠUpdate": 6000,
      "ij": 6001,
      "dep": 6002,
      "ĠOrderedDict": 6003,
      "atype": 6004,
      "irt": 6005,
      "Ġcases": 6006,
      "Na": 6007,
      "rupt": 6008,
      "Ġrevision": 6009,
      "existing": 6010,
      "vol": 6011,
      "Ġignored": 6012,
      "ĠSche": 6013,
      "ĠInt": 6014,
      "marker": 6015,
      "rd": 6016,
      "]'": 6017,
      "ĠClo": 6018,
      "Ġexact": 6019,
      "/<": 6020,
      "Ġpixel": 6021,
      "Ġcondition": 6022,
      "strftime": 6023,
      "Ġkernel": 6024,
      "CHAN": 6025,
      "Ġworkflow": 6026,
      "Ġabove": 6027,
      "Ġretry": 6028,
      "xf": 6029,
      "Ġversions": 6030,
      "blocks": 6031,
      "Ġauthentication": 6032,
      "jor": 6033,
      "FN": 6034,
      "pretty": 6035,
      "traceback": 6036,
      "Unable": 6037,
      "Ġcm": 6038,
      "Ġugettext": 6039,
      "Ġscan": 6040,
      "echo": 6041,
      "manifest": 6042,
      "sur": 6043,
      ")+": 6044,
      "Rep": 6045,
      "ĠWS": 6046,
      "')))": 6047,
      "ifs": 6048,
      "Ġsecret": 6049,
      "ĠProject": 6050,
      "Ġfixed": 6051,
      "SOUR": 6052,
      "hing": 6053,
      "national": 6054,
      "Ġdim": 6055,
      "Current": 6056,
      ")}": 6057,
      "Ġ()": 6058,
      "Ġmodified": 6059,
      "Ġrot": 6060,
      "ARD": 6061,
      "Trove": 6062,
      "ĠWork": 6063,
      "ĠWeb": 6064,
      "Ġdrop": 6065,
      "bc": 6066,
      "Missing": 6067,
      "RR": 6068,
      "Ġdefine": 6069,
      "']]": 6070,
      "ĠWindow": 6071,
      "bf": 6072,
      "subscription": 6073,
      "Ġcloud": 6074,
      "Ġsublime": 6075,
      "descriptor": 6076,
      "attrib": 6077,
      "Ġwell": 6078,
      "kg": 6079,
      "Ġpartial": 6080,
      "geo": 6081,
      "tar": 6082,
      "mul": 6083,
      "Ġscipy": 6084,
      "Offset": 6085,
      "gui": 6086,
      "Ġfmt": 6087,
      "2013": 6088,
      "darray": 6089,
      "****************": 6090,
      "Ġdistribu": 6091,
      "PU": 6092,
      "ndim": 6093,
      "Generator": 6094,
      ">')": 6095,
      "chars": 6096,
      "struction": 6097,
      "Comple": 6098,
      "addresses": 6099,
      "backup": 6100,
      "Ġfra": 6101,
      "omial": 6102,
      "Ġserializer": 6103,
      "Items": 6104,
      "Properties": 6105,
      "Ġbackground": 6106,
      "tected": 6107,
      "cycle": 6108,
      "onymous": 6109,
      "ONG": 6110,
      "lave": 6111,
      "serial": 6112,
      "Ġdepth": 6113,
      "({\"": 6114,
      "ensure": 6115,
      "Keys": 6116,
      "video": 6117,
      "Ġscheduler": 6118,
      "MAL": 6119,
      "framework": 6120,
      "Send": 6121,
      "ĠPre": 6122,
      "Ġtargets": 6123,
      "CUR": 6124,
      "NV": 6125,
      "aaaa": 6126,
      "CLI": 6127,
      "six": 6128,
      "Ġspa": 6129,
      "compare": 6130,
      "warnings": 6131,
      "ets": 6132,
      "EP": 6133,
      "mysql": 6134,
      "normalize": 6135,
      "uz": 6136,
      "beta": 6137,
      "Pick": 6138,
      "auss": 6139,
      "Ġfuture": 6140,
      "background": 6141,
      "threads": 6142,
      "har": 6143,
      "]).": 6144,
      "Ġsetuptools": 6145,
      "priate": 6146,
      "limiter": 6147,
      "hint": 6148,
      "Ġ'+": 6149,
      "ird": 6150,
      "Ġmarker": 6151,
      "ĠIndexError": 6152,
      "without": 6153,
      "idual": 6154,
      "Tri": 6155,
      "ĠAuthor": 6156,
      "collect": 6157,
      "ĠStatus": 6158,
      ">=": 6159,
      "pends": 6160,
      "Ġproto": 6161,
      "nl": 6162,
      "Ġauthentic": 6163,
      "Ġround": 6164,
      "seen": 6165,
      "Ġboot": 6166,
      "INGS": 6167,
      "('.')": 6168,
      "otype": 6169,
      "VS": 6170,
      "Ġallows": 6171,
      "Cor": 6172,
      "METH": 6173,
      "Ġarr": 6174,
      "('/')": 6175,
      "PK": 6176,
      "TC": 6177,
      "ĠOut": 6178,
      "ierarch": 6179,
      "======": 6180,
      "gree": 6181,
      "Ġdot": 6182,
      "more": 6183,
      "ĠItem": 6184,
      "Ġleast": 6185,
      "allel": 6186,
      "Ġ18": 6187,
      "Ġloaded": 6188,
      "Ġ17": 6189,
      "country": 6190,
      "Ġwrapped": 6191,
      "Ġmeans": 6192,
      ":\",": 6193,
      "Ġencoded": 6194,
      "Ġour": 6195,
      "SUB": 6196,
      "aw": 6197,
      "serializer": 6198,
      "Engine": 6199,
      "dependencies": 6200,
      "CREATE": 6201,
      "measure": 6202,
      "Expected": 6203,
      "Cloud": 6204,
      "TAG": 6205,
      "Ġacce": 6206,
      "Ġeffect": 6207,
      "ĠMagicMock": 6208,
      "INST": 6209,
      ")\")": 6210,
      "ĠPY": 6211,
      "PASS": 6212,
      "exe": 6213,
      "Ġetc": 6214,
      "compress": 6215,
      "slots": 6216,
      "Ġvirt": 6217,
      "Ġincluded": 6218,
      "DEX": 6219,
      "wiki": 6220,
      "Basic": 6221,
      "may": 6222,
      "ĠGe": 6223,
      "ateri": 6224,
      "')])": 6225,
      "Ġscreen": 6226,
      "Show": 6227,
      "Make": 6228,
      "dom": 6229,
      "Ġsc": 6230,
      "nested": 6231,
      "conver": 6232,
      "Ġbundle": 6233,
      "Ġuseful": 6234,
      "gm": 6235,
      "actual": 6236,
      "Imp": 6237,
      "Ġlists": 6238,
      "Ġsaved": 6239,
      "aws": 6240,
      "ny": 6241,
      "Ġperson": 6242,
      "ital": 6243,
      "Ġalign": 6244,
      "cont": 6245,
      "tached": 6246,
      ">>": 6247,
      "cnt": 6248,
      "lected": 6249,
      "Ġarchive": 6250,
      "/\"": 6251,
      "SYS": 6252,
      "Ġct": 6253,
      "same": 6254,
      "trigger": 6255,
      "Memory": 6256,
      "__))": 6257,
      "kill": 6258,
      "\"]:": 6259,
      "Mark": 6260,
      "Ġimplemented": 6261,
      "Lexer": 6262,
      "Custom": 6263,
      "cessary": 6264,
      "equals": 6265,
      "GG": 6266,
      "resize": 6267,
      "ĠClass": 6268,
      "Extra": 6269,
      "lm": 6270,
      "acquire": 6271,
      "Ġactiv": 6272,
      "Generate": 6273,
      "WR": 6274,
      "Ġwarning": 6275,
      "Ġsess": 6276,
      "Ġvalidation": 6277,
      "atar": 6278,
      "dirty": 6279,
      "=('": 6280,
      "ĠEnt": 6281,
      "uda": 6282,
      "Enum": 6283,
      "Ġlice": 6284,
      "distribution": 6285,
      "Flow": 6286,
      "ĠCLI": 6287,
      "ĠĠĠĠĠĠĠĠĠĠĠĠĠĠ": 6288,
      "RPC": 6289,
      "uess": 6290,
      "Ġappe": 6291,
      "234": 6292,
      "devices": 6293,
      "urnal": 6294,
      "crete": 6295,
      "Main": 6296,
      "virtual": 6297,
      "Ġretrieve": 6298,
      "GROUP": 6299,
      "Ġsel": 6300,
      "ĠTag": 6301,
      "FD": 6302,
      "250": 6303,
      "PTION": 6304,
      "ĠTHE": 6305,
      "ifications": 6306,
      "documents": 6307,
      "Ġpriority": 6308,
      "Ġlistener": 6309,
      "sqlite": 6310,
      "ĠFunction": 6311,
      "alent": 6312,
      "UNK": 6313,
      "TCP": 6314,
      "Ġmachine": 6315,
      "Ġknown": 6316,
      "quare": 6317,
      "FR": 6318,
      "kel": 6319,
      "cleanup": 6320,
      "Ġklass": 6321,
      "TL": 6322,
      "Ġdesired": 6323,
      "hg": 6324,
      "imize": 6325,
      "notes": 6326,
      "Ġdig": 6327,
      "Ġsha": 6328,
      "ANY": 6329,
      "Ġappropriate": 6330,
      "voked": 6331,
      "writ": 6332,
      "duction": 6333,
      "ĠArray": 6334,
      "UU": 6335,
      "weights": 6336,
      "epoch": 6337,
      "responses": 6338,
      "]|": 6339,
      "Ġ'[": 6340,
      "Ġinner": 6341,
      "Ġseen": 6342,
      "Ġapplic": 6343,
      "ki": 6344,
      "WARE": 6345,
      "Ġ(_": 6346,
      "diffe": 6347,
      "Mapping": 6348,
      "--------------------------------": 6349,
      "Lim": 6350,
      "Ġaff": 6351,
      "ĠURI": 6352,
      "soft": 6353,
      "Title": 6354,
      "inity": 6355,
      "Ġcc": 6356,
      "vf": 6357,
      "sr": 6358,
      "linear": 6359,
      "pd": 6360,
      "Ġnose": 6361,
      "Ġconnections": 6362,
      "lick": 6363,
      "timedelta": 6364,
      "QQ": 6365,
      "Site": 6366,
      "za": 6367,
      "sertionError": 6368,
      "ZW": 6369,
      "cum": 6370,
      "Ġexternal": 6371,
      "filepath": 6372,
      "Ġ19": 6373,
      "Ġduration": 6374,
      "Wor": 6375,
      "activity": 6376,
      "Stub": 6377,
      "]],": 6378,
      "Ġlinks": 6379,
      "Fn": 6380,
      "ality": 6381,
      "ĠSSL": 6382,
      "rypted": 6383,
      "PhoneNumberDesc": 6384,
      "ZX": 6385,
      "IME": 6386,
      "Ġemit": 6387,
      "conv": 6388,
      "Ġresolve": 6389,
      "pickle": 6390,
      "ntaxError": 6391,
      "DJ": 6392,
      "reactor": 6393,
      "uc": 6394,
      "ĠOptional": 6395,
      "keywords": 6396,
      "Parameters": 6397,
      "structure": 6398,
      "}),": 6399,
      "ĠMGL": 6400,
      "ĠSoftware": 6401,
      "inct": 6402,
      "Ġsources": 6403,
      "ĠValidationError": 6404,
      "CB": 6405,
      "Clean": 6406,
      "ĠPath": 6407,
      "2015": 6408,
      "Loop": 6409,
      "Axis": 6410,
      "ĠVER": 6411,
      "Choice": 6412,
      "Sum": 6413,
      "helpers": 6414,
      "Changed": 6415,
      "erge": 6416,
      "lencode": 6417,
      "pixel": 6418,
      "Space": 6419,
      "MY": 6420,
      "article": 6421,
      "covery": 6422,
      "Empty": 6423,
      "Expression": 6424,
      "uous": 6425,
      "KK": 6426,
      "Ġagainst": 6427,
      "twisted": 6428,
      "Ġclone": 6429,
      "acl": 6430,
      "Ġfix": 6431,
      "Series": 6432,
      "deepcopy": 6433,
      "tm": 6434,
      "finished": 6435,
      "Ġiterator": 6436,
      "ailability": 6437,
      "ĠPost": 6438,
      "scheduler": 6439,
      "Feature": 6440,
      "Ġlon": 6441,
      "Ġclick": 6442,
      "disable": 6443,
      "frames": 6444,
      "Ġinv": 6445,
      "CV": 6446,
      "(\"\"": 6447,
      "java": 6448,
      "ongo": 6449,
      "globals": 6450,
      "argtypes": 6451,
      "ABASE": 6452,
      "LASS": 6453,
      "forward": 6454,
      "Connect": 6455,
      "Ġhashlib": 6456,
      "Ġborder": 6457,
      "listdir": 6458,
      "ATCH": 6459,
      "Lookup": 6460,
      "Ġlicense": 6461,
      "Ġexperiment": 6462,
      "binding": 6463,
      "ACT": 6464,
      "VAR": 6465,
      "Ġ\\\\": 6466,
      "acity": 6467,
      "Dictionary": 6468,
      "Ġmar": 6469,
      "lr": 6470,
      "Ġregistry": 6471,
      "hw": 6472,
      "TEMPLATE": 6473,
      "quivalent": 6474,
      "Ġlang": 6475,
      "Ġ':": 6476,
      "Ġcalling": 6477,
      "ĠLine": 6478,
      "alf": 6479,
      "Ġupdates": 6480,
      "volumes": 6481,
      "__),": 6482,
      "lopen": 6483,
      "Ġsec": 6484,
      "ĠRes": 6485,
      "Ġregistered": 6486,
      "aliases": 6487,
      "customer": 6488,
      "Ġcombin": 6489,
      "BoundedBig": 6490,
      "refs": 6491,
      "Ġplay": 6492,
      "Ġansw": 6493,
      "have": 6494,
      "Ok": 6495,
      "Ġgame": 6496,
      "\\.": 6497,
      "ĠFl": 6498,
      "RT": 6499,
      "geom": 6500,
      "ysical": 6501,
      "Ġ40": 6502,
      "Ġve": 6503,
      "Ġreader": 6504,
      "fq": 6505,
      "coordin": 6506,
      "tection": 6507,
      "best": 6508,
      "ĠMigration": 6509,
      "rides": 6510,
      "Bytes": 6511,
      "Used": 6512,
      "roker": 6513,
      "ĠBad": 6514,
      "locals": 6515,
      "macro": 6516,
      "secure": 6517,
      "}\"": 6518,
      "Ġpad": 6519,
      "FL": 6520,
      "versed": 6521,
      "Ġunits": 6522,
      ".'''": 6523,
      "iler": 6524,
      "ĠĠĠĠĠĠĠĠĠĠĠĠĠ": 6525,
      "DT": 6526,
      "deployment": 6527,
      "ratio": 6528,
      "ti": 6529,
      "tangible": 6530,
      "ookie": 6531,
      "Ġsamples": 6532,
      "RECT": 6533,
      "canvas": 6534,
      "gd": 6535,
      "gres": 6536,
      "Ġssh": 6537,
      "Ġonce": 6538,
      "Cert": 6539,
      "orizon": 6540,
      "Ġweights": 6541,
      "datastore": 6542,
      "Ġdid": 6543,
      "Ġmetrics": 6544,
      "SQ": 6545,
      "Ġpoly": 6546,
      "iterator": 6547,
      "constant": 6548,
      "Abstract": 6549,
      "Ġdummy": 6550,
      "share": 6551,
      "lies": 6552,
      "iling": 6553,
      "fk": 6554,
      "Ġdns": 6555,
      "based": 6556,
      "olved": 6557,
      "3333": 6558,
      "zo": 6559,
      "ĠCur": 6560,
      "Arg": 6561,
      ">%": 6562,
      "Ca": 6563,
      "Ġkeywords": 6564,
      "uffle": 6565,
      "\"},": 6566,
      "DULE": 6567,
      "rozenset": 6568,
      "bp": 6569,
      "Ġspe": 6570,
      "ection": 6571,
      "mx": 6572,
      "aggregate": 6573,
      "Ġrc": 6574,
      "under": 6575,
      "clusive": 6576,
      "lc": 6577,
      "vlan": 6578,
      "att": 6579,
      "Ġown": 6580,
      "Children": 6581,
      "lace": 6582,
      "ĠQtCore": 6583,
      "ĠValid": 6584,
      "Execution": 6585,
      "war": 6586,
      "Ġsupplied": 6587,
      "\"%": 6588,
      "ĠAct": 6589,
      "lour": 6590,
      "Required": 6591,
      "hist": 6592,
      "ky": 6593,
      "annotation": 6594,
      "Ġrelationship": 6595,
      "ĠDes": 6596,
      "Ġhistory": 6597,
      "WORK": 6598,
      "Ġseed": 6599,
      "configs": 6600,
      "OC": 6601,
      "Ġestim": 6602,
      "prompt": 6603,
      "rx": 6604,
      "criptor": 6605,
      "DH": 6606,
      "([(": 6607,
      "predict": 6608,
      "PN": 6609,
      "DED": 6610,
      "Ġrec": 6611,
      "Ġfact": 6612,
      "Ġnx": 6613,
      "Popen": 6614,
      "joint": 6615,
      "jar": 6616,
      "nces": 6617,
      "Ġhome": 6618,
      "rank": 6619,
      "Tuple": 6620,
      "Ġtrace": 6621,
      "star": 6622,
      "Ġhelper": 6623,
      "BoundedBigAutoField": 6624,
      "gw": 6625,
      "`:": 6626,
      "band": 6627,
      "ĠWSGI": 6628,
      "ically": 6629,
      "Ġsummary": 6630,
      "LIN": 6631,
      "ised": 6632,
      "Track": 6633,
      "walk": 6634,
      "Ġtoo": 6635,
      "fw": 6636,
      "Ġmove": 6637,
      "Ġeven": 6638,
      "coming": 6639,
      "ĠCONF": 6640,
      "ĠĠĠĠĠĠĠĠĠĠĠĠĠĠĠ": 6641,
      "Comment": 6642,
      "strict": 6643,
      "foreignkey": 6644,
      "reduce": 6645,
      "Enabled": 6646,
      "dashboard": 6647,
      "analy": 6648,
      "Ġclosed": 6649,
      "Gl": 6650,
      "exact": 6651,
      "tcp": 6652,
      "NAL": 6653,
      "License": 6654,
      "ĠOper": 6655,
      "oring": 6656,
      "Ġstrip": 6657,
      "AI": 6658,
      "stanti": 6659,
      "GP": 6660,
      "car": 6661,
      "Ġ^": 6662,
      "plus": 6663,
      "Ġglobals": 6664,
      ")-": 6665,
      "}{": 6666,
      "mr": 6667,
      "Ġmatplotlib": 6668,
      "....": 6669,
      "spawn": 6670,
      "ĠNULL": 6671,
      "Ġsn": 6672,
      "Ġ3000": 6673,
      "variance": 6674,
      "rea": 6675,
      "raries": 6676,
      "nsity": 6677,
      "GV": 6678,
      "Close": 6679,
      "ctypes": 6680,
      "Ġdescri": 6681,
      "ERT": 6682,
      "getter": 6683,
      "iration": 6684,
      "compatible": 6685,
      "Multiple": 6686,
      "calc": 6687,
      "setter": 6688,
      "Raw": 6689,
      "ContentType": 6690,
      "600": 6691,
      "ĠNetwork": 6692,
      "168": 6693,
      "Ġps": 6694,
      "listen": 6695,
      "ĠMAX": 6696,
      "ĠPh": 6697,
      "MC": 6698,
      "ĠVi": 6699,
      "=[\"": 6700,
      "DY": 6701,
      "disabled": 6702,
      "Db": 6703,
      "phone": 6704,
      "formats": 6705,
      "686": 6706,
      "Ġuid": 6707,
      "ĠCopyright": 6708,
      "lier": 6709,
      "blog": 6710,
      "Ġpers": 6711,
      "Ġ'':": 6712,
      "tegration": 6713,
      "dw": 6714,
      "relative": 6715,
      "DR": 6716,
      "(%(": 6717,
      "TF": 6718,
      "COMP": 6719,
      "rng": 6720,
      "Remote": 6721,
      "Transform": 6722,
      "MQ": 6723,
      "JJ": 6724,
      "__',": 6725,
      "ĠIs": 6726,
      "restype": 6727,
      "ball": 6728,
      "migration": 6729,
      "Ġvideo": 6730,
      "IX": 6731,
      "Ġbases": 6732,
      "ĠDefaults": 6733,
      "Iteration": 6734,
      "['_": 6735,
      "ĠMulti": 6736,
      "Ġfreq": 6737,
      "NULL": 6738,
      "quiet": 6739,
      "Ġwritten": 6740,
      "initions": 6741,
      "ĠBuild": 6742,
      "ingerprint": 6743,
      "KEN": 6744,
      "Ġfunctools": 6745,
      "tions": 6746,
      "thrift": 6747,
      "ĠAb": 6748,
      "atory": 6749,
      "allen": 6750,
      "Flags": 6751,
      "Save": 6752,
      "asarray": 6753,
      "voice": 6754,
      "shutdown": 6755,
      "NODE": 6756,
      "KET": 6757,
      "MAC": 6758,
      "program": 6759,
      "vy": 6760,
      "strument": 6761,
      "Ġpublish": 6762,
      "vile": 6763,
      "FB": 6764,
      "QtGui": 6765,
      "ĠANY": 6766,
      "zk": 6767,
      "ĠPoint": 6768,
      "Go": 6769,
      "Last": 6770,
      "rn": 6771,
      "Ġsur": 6772,
      "relationship": 6773,
      "ryption": 6774,
      ".\"),": 6775,
      "ModelAdmin": 6776,
      "OO": 6777,
      "_{": 6778,
      "repeat": 6779,
      "Ġsyntax": 6780,
      "SOURCE": 6781,
      "ĠĠĠĠĠĠĠĠĠĠĠĠĠĠĠĠĠĠĠĠĠĠĠĠĠĠĠĠĠĠĠĠ": 6782,
      "coord": 6783,
      "Ġservices": 6784,
      "cifs": 6785,
      "ĠQueue": 6786,
      "errno": 6787,
      "Cy": 6788,
      "COUNT": 6789,
      "Ġerrno": 6790,
      "iq": 6791,
      "coords": 6792,
      "Ġrecent": 6793,
      "cookies": 6794,
      "QR": 6795,
      "Success": 6796,
      "AY": 6797,
      "dependency": 6798,
      "room": 6799,
      "mkdir": 6800,
      "Vector": 6801,
      "SSAGE": 6802,
      "specific": 6803,
      "Ġcomplex": 6804,
      "Pe": 6805,
      "ites": 6806,
      "ĠUt": 6807,
      "bsite": 6808,
      "EE": 6809,
      "IMAGE": 6810,
      "Ġworksheet": 6811,
      "MagicMock": 6812,
      "Ġpandas": 6813,
      "Cal": 6814,
      "Some": 6815,
      "Ġnested": 6816,
      "irtual": 6817,
      "Ġpush": 6818,
      "findall": 6819,
      "Identifier": 6820,
      "Category": 6821,
      "Ġplayer": 6822,
      "clients": 6823,
      "NOWN": 6824,
      "lems": 6825,
      "ndarray": 6826,
      "ough": 6827,
      "Body": 6828,
      "Msg": 6829,
      "axes": 6830,
      "ĠStop": 6831,
      "umed": 6832,
      "Ġ'/'": 6833,
      "cov": 6834,
      "ĠDAT": 6835,
      "osite": 6836,
      "Ter": 6837,
      "associ": 6838,
      "CONTENT": 6839,
      "rstrip": 6840,
      "Ġcontact": 6841,
      "Ġ'*'": 6842,
      "assertNotEqual": 6843,
      "setitem": 6844,
      "Ġrate": 6845,
      "confirm": 6846,
      "Errors": 6847,
      "Ġworks": 6848,
      "Ġreply": 6849,
      "FUN": 6850,
      "\")),": 6851,
      "_='": 6852,
      "ĠAction": 6853,
      "UTF": 6854,
      "small": 6855,
      "xp": 6856,
      "Ġrpc": 6857,
      "activate": 6858,
      "outfile": 6859,
      "cend": 6860,
      "Ġcreating": 6861,
      "HH": 6862,
      "!!": 6863,
      "Ġjobs": 6864,
      "Use": 6865,
      "Ġsupports": 6866,
      "Ġselection": 6867,
      "Ġchoice": 6868,
      "Random": 6869,
      "Ġdelay": 6870,
      "illi": 6871,
      "ĠNew": 6872,
      "Inline": 6873,
      "}:": 6874,
      "bld": 6875,
      "ĠRead": 6876,
      "Ġswitch": 6877,
      "Usage": 6878,
      "atches": 6879,
      "Ġpt": 6880,
      "usted": 6881,
      "Ġpercent": 6882,
      "Ġep": 6883,
      "Ġtemplates": 6884,
      "ĠGeneric": 6885,
      "aste": 6886,
      "Ġobtain": 6887,
      "Grid": 6888,
      "windows": 6889,
      "CACHE": 6890,
      "Article": 6891,
      "authorized": 6892,
      "Ġ\"+": 6893,
      "ĠProcess": 6894,
      "2012": 6895,
      "Conf": 6896,
      "Ġexpand": 6897,
      "Ġstates": 6898,
      "Ġtuples": 6899,
      "flo": 6900,
      "ĠNS": 6901,
      "Ag": 6902,
      "FY": 6903,
      "Render": 6904,
      "Plug": 6905,
      "Ġord": 6906,
      "Cluster": 6907,
      "ĠImp": 6908,
      "bm": 6909,
      "splitlines": 6910,
      "TIMEOUT": 6911,
      "LP": 6912,
      "Ġpypy": 6913,
      "56789": 6914,
      "]}": 6915,
      ")**": 6916,
      "maps": 6917,
      "Ġexecuted": 6918,
      "ĠIPv": 6919,
      "appro": 6920,
      "Ġsync": 6921,
      "'re": 6922,
      "validator": 6923,
      "ĠEach": 6924,
      "Ġplugins": 6925,
      "Ġwhose": 6926,
      "IV": 6927,
      "pn": 6928,
      "xl": 6929,
      "rieve": 6930,
      "chdir": 6931,
      "cus": 6932,
      "Ġvisible": 6933,
      "Ġmodifi": 6934,
      "udit": 6935,
      "seque": 6936,
      "Descriptor": 6937,
      "precation": 6938,
      "Person": 6939,
      "FLAGS": 6940,
      "compiler": 6941,
      "categories": 6942,
      "MODULE": 6943,
      "Cell": 6944,
      "Ġnt": 6945,
      "Ġ400": 6946,
      "Ġnecessary": 6947,
      "Ġexplicit": 6948,
      "tf": 6949,
      "lying": 6950,
      "ĠSession": 6951,
      "ĠArt": 6952,
      "Ġbackup": 6953,
      "Ġunpack": 6954,
      "=_('": 6955,
      "DC": 6956,
      "Step": 6957,
      "Fields": 6958,
      "foobar": 6959,
      "SR": 6960,
      "Ġ\")": 6961,
      "ARNING": 6962,
      "NK": 6963,
      "();": 6964,
      "Product": 6965,
      "vides": 6966,
      "started": 6967,
      "ritical": 6968,
      "ĠUnicode": 6969,
      "syn": 6970,
      "peer": 6971,
      "ocial": 6972,
      "brid": 6973,
      "ĠComment": 6974,
      "licies": 6975,
      "Ġformatted": 6976,
      "Ġcols": 6977,
      "Ġconsi": 6978,
      "dk": 6979,
      "Ġ23": 6980,
      "Ġconstruct": 6981,
      "Ġquote": 6982,
      "ĠCre": 6983,
      "Ġ22": 6984,
      "vers": 6985,
      "diag": 6986,
      "Ġblue": 6987,
      "ĠLe": 6988,
      "Ġface": 6989,
      "Ġcharset": 6990,
      "GHT": 6991,
      "VV": 6992,
      "tv": 6993,
      "Ġupper": 6994,
      "Ġfh": 6995,
      "qname": 6996,
      "Ġtimezone": 6997,
      "notification": 6998,
      "dian": 6999,
      "indexes": 7000,
      "avg": 7001,
      "Poly": 7002,
      "ĠGoogle": 7003,
      "Ġstarting": 7004,
      "callable": 7005,
      "completed": 7006,
      "stit": 7007,
      "Func": 7008,
      "_'": 7009,
      "ternative": 7010,
      "DIS": 7011,
      "Prefix": 7012,
      "Ġdistributed": 7013,
      "ĠAlso": 7014,
      "ah": 7015,
      "Editor": 7016,
      "city": 7017,
      "DOMAIN": 7018,
      "jk": 7019,
      "ond": 7020,
      "Ġicon": 7021,
      "OW": 7022,
      "Ġbeta": 7023,
      "Ġlat": 7024,
      "Ġ~": 7025,
      "loss": 7026,
      "Skip": 7027,
      "GT": 7028,
      "ĠTangible": 7029,
      "Debug": 7030,
      "Ġdouble": 7031,
      "Ġhosts": 7032,
      "migrations": 7033,
      "quota": 7034,
      "Ġindependent": 7035,
      "ĠDatabase": 7036,
      "_[": 7037,
      "xd": 7038,
      "rase": 7039,
      "CATION": 7040,
      "Find": 7041,
      "It": 7042,
      "cture": 7043,
      "Ġworking": 7044,
      "formatter": 7045,
      "TIES": 7046,
      "Upload": 7047,
      "ĠSup": 7048,
      "Ġmade": 7049,
      "Ġrect": 7050,
      "tee": 7051,
      "charset": 7052,
      "hooks": 7053,
      "Ġfid": 7054,
      "decorators": 7055,
      "Disk": 7056,
      "Ġ'\\\\": 7057,
      "ipeline": 7058,
      "scores": 7059,
      "copyright": 7060,
      "receive": 7061,
      "proj": 7062,
      "Ġhandlers": 7063,
      "ĠPOINTER": 7064,
      "Ġ\"[": 7065,
      "beat": 7066,
      "ginator": 7067,
      "randint": 7068,
      "+=": 7069,
      "Ġpower": 7070,
      "olds": 7071,
      "(_('": 7072,
      "Ġhex": 7073,
      "()])": 7074,
      "parsers": 7075,
      "POINT": 7076,
      "mtree": 7077,
      "MR": 7078,
      "PB": 7079,
      "Ġstarted": 7080,
      "Ġcost": 7081,
      "TOKEN": 7082,
      "Ġcreation": 7083,
      "sto": 7084,
      "ders": 7085,
      "Ġparticular": 7086,
      "packet": 7087,
      "Flavor": 7088,
      "ĠAny": 7089,
      "Pat": 7090,
      "}):": 7091,
      "AE": 7092,
      "vd": 7093,
      "Ġgr": 7094,
      "ĠDEBUG": 7095,
      "TES": 7096,
      "black": 7097,
      "trip": 7098,
      "Ġschedule": 7099,
      "spam": 7100,
      "cases": 7101,
      "Ġpie": 7102,
      "Ġyet": 7103,
      "Ġteam": 7104,
      "Ġmonitor": 7105,
      "ĠFOR": 7106,
      "ĠBe": 7107,
      "UC": 7108,
      "Security": 7109,
      "999": 7110,
      "LAY": 7111,
      "cogn": 7112,
      "Ġtornado": 7113,
      "updates": 7114,
      "qq": 7115,
      "tour": 7116,
      "Ġsleep": 7117,
      "Help": 7118,
      "ANT": 7119,
      "Ġreduce": 7120,
      "('',": 7121,
      "Ġ80": 7122,
      "Endpoint": 7123,
      "ync": 7124,
      "Ġitself": 7125,
      "Ġvert": 7126,
      "Cmd": 7127,
      "ĠCall": 7128,
      "pology": 7129,
      "tol": 7130,
      "pow": 7131,
      "rected": 7132,
      "registration": 7133,
      "operations": 7134,
      "Ġimplements": 7135,
      "Folder": 7136,
      "xe": 7137,
      "ells": 7138,
      "Ġ{}'.": 7139,
      "Ġ'(": 7140,
      "Ġconstructor": 7141,
      "Ġrdf": 7142,
      "Ġnormalize": 7143,
      "finish": 7144,
      "Definition": 7145,
      "Ġprompt": 7146,
      "astic": 7147,
      "Ġ\"\")": 7148,
      "ĠView": 7149,
      "=',": 7150,
      "received": 7151,
      "radius": 7152,
      "Cap": 7153,
      "must": 7154,
      "special": 7155,
      "ĠKeyword": 7156,
      "ĠKEY": 7157,
      "attachment": 7158,
      "accounts": 7159,
      "ĠSYS": 7160,
      "adow": 7161,
      "Unicode": 7162,
      "avas": 7163,
      "=[],": 7164,
      "Generic": 7165,
      "aemon": 7166,
      "ĠVAL": 7167,
      "BS": 7168,
      "RUN": 7169,
      "codename": 7170,
      "Ġcalcul": 7171,
      "plural": 7172,
      "Ġwatch": 7173,
      "Ġaddresses": 7174,
      "eps": 7175,
      "Ġbuilt": 7176,
      "Ġmodify": 7177,
      "CLASS": 7178,
      "bine": 7179,
      "micro": 7180,
      "tmpdir": 7181,
      "writeField": 7182,
      "ĠPermission": 7183,
      "Qk": 7184,
      "pache": 7185,
      "Ġsli": 7186,
      "Ġpartition": 7187,
      "Ġyfsm": 7188,
      "fm": 7189,
      "\");": 7190,
      "processors": 7191,
      "sid": 7192,
      "Xz": 7193,
      "Ġunknown": 7194,
      "ircle": 7195,
      "Ġcompare": 7196,
      "AK": 7197,
      "Ġfo": 7198,
      "ket": 7199,
      "Ġcont": 7200,
      "tenv": 7201,
      "Xbrl": 7202,
      "nick": 7203,
      "Ġcomments": 7204,
      "ĠGraph": 7205,
      "Verify": 7206,
      "numbers": 7207,
      "PROTO": 7208,
      "nr": 7209,
      "OFF": 7210,
      "ĠON": 7211,
      "Ġordering": 7212,
      "flatten": 7213,
      "Library": 7214,
      "LENG": 7215,
      "Ġcorehq": 7216,
      "Ġwriting": 7217,
      "PRI": 7218,
      "docker": 7219,
      "Ġwarn": 7220,
      "Ġui": 7221,
      "(_(\"": 7222,
      "Tw": 7223,
      "Ġnargs": 7224,
      "Ma": 7225,
      "Pack": 7226,
      "INVALID": 7227,
      "ardown": 7228,
      "ĠInit": 7229,
      "METHOD": 7230,
      "hether": 7231,
      "ierarchy": 7232,
      "Ġresponses": 7233,
      "assertIsNone": 7234,
      "since": 7235,
      "agraph": 7236,
      "FIELD": 7237,
      "DN": 7238,
      "ancy": 7239,
      "ĠTO": 7240,
      "journal": 7241,
      "Ġ404": 7242,
      "Ġcwd": 7243,
      "[\\": 7244,
      "Region": 7245,
      "ĠAp": 7246,
      "Ġdistutils": 7247,
      "apsed": 7248,
      "sites": 7249,
      "udio": 7250,
      "udi": 7251,
      "Ġfilenames": 7252,
      "ĠLI": 7253,
      "Ġnb": 7254,
      "Ġlet": 7255,
      "widgets": 7256,
      "hh": 7257,
      "HEADER": 7258,
      "Ġcurr": 7259,
      "ni": 7260,
      "('''": 7261,
      "ULTI": 7262,
      "LENGTH": 7263,
      "Ġtm": 7264,
      "makedirs": 7265,
      "balance": 7266,
      "ĠUsage": 7267,
      "avascript": 7268,
      "browser": 7269,
      "Ġenum": 7270,
      "Ġaxes": 7271,
      "ĠCan": 7272,
      "PACK": 7273,
      "Ġmeasure": 7274,
      "Util": 7275,
      "ĠOAuth": 7276,
      "placeholder": 7277,
      "Dist": 7278,
      "ĠSTATUS": 7279,
      ";\\": 7280,
      "gis": 7281,
      "='/": 7282,
      "DL": 7283,
      "Ġcred": 7284,
      "installed": 7285,
      "ensor": 7286,
      "Ori": 7287,
      "gun": 7288,
      "Ġetree": 7289,
      "Transaction": 7290,
      "gene": 7291,
      "Ġconfigure": 7292,
      "Ġapplied": 7293,
      "ĠParse": 7294,
      "Ġsimp": 7295,
      "Ġbehavior": 7296,
      "Height": 7297,
      "EK": 7298,
      "tablename": 7299,
      "superuser": 7300,
      "ĠOutput": 7301,
      "Ġmk": 7302,
      "={},": 7303,
      "httplib": 7304,
      "speed": 7305,
      "uv": 7306,
      "ientation": 7307,
      "Ġconnected": 7308,
      "Ġregular": 7309,
      "logical": 7310,
      "demo": 7311,
      "RESS": 7312,
      "LOB": 7313,
      "chunks": 7314,
      "hyper": 7315,
      "rack": 7316,
      "NUMBER": 7317,
      "ĠContext": 7318,
      "HttpRequest": 7319,
      "examples": 7320,
      "Ġ500": 7321,
      "Ġpur": 7322,
      "Ġblocks": 7323,
      "ĠPOST": 7324,
      ">\",": 7325,
      "Please": 7326,
      "utcnow": 7327,
      "Ġcenter": 7328,
      "Ġ'.'": 7329,
      "ĠPlease": 7330,
      "2010": 7331,
      "kb": 7332,
      "ĠCustom": 7333,
      "Ġanswer": 7334,
      "YX": 7335,
      "Ġnotification": 7336,
      "RM": 7337,
      "Namespace": 7338,
      "JS": 7339,
      "zon": 7340,
      "strails": 7341,
      "which": 7342,
      "ILD": 7343,
      "Ġrev": 7344,
      "catalog": 7345,
      "Reactor": 7346,
      "Dummy": 7347,
      "WITH": 7348,
      "mouse": 7349,
      "ordered": 7350,
      "uf": 7351,
      "teps": 7352,
      "+/": 7353,
      "Wait": 7354,
      "Ġconverted": 7355,
      "Chart": 7356,
      "linux": 7357,
      "Ġjs": 7358,
      "ĠVERSION": 7359,
      "SETT": 7360,
      "ĠStorage": 7361,
      "Print": 7362,
      "kk": 7363,
      "ĠOnly": 7364,
      "UV": 7365,
      "Ġtrove": 7366,
      "ogram": 7367,
      "Xml": 7368,
      "ipt": 7369,
      "posed": 7370,
      "Ġarc": 7371,
      "512": 7372,
      "Release": 7373,
      "REC": 7374,
      "pie": 7375,
      "Ġedges": 7376,
      "ĠOK": 7377,
      "creation": 7378,
      "Login": 7379,
      "Ow": 7380,
      "initialize": 7381,
      "forum": 7382,
      "ĠBoolean": 7383,
      "Configured": 7384,
      "Ġversionadded": 7385,
      "Contains": 7386,
      "Non": 7387,
      "until": 7388,
      "android": 7389,
      "Ġdefaultdict": 7390,
      "Ġri": 7391,
      "!\")": 7392,
      "draft": 7393,
      "ium": 7394,
      "Ġdescriptor": 7395,
      "Ġchecks": 7396,
      "Ġattempt": 7397,
      "ppings": 7398,
      "Ġrng": 7399,
      "las": 7400,
      "BAD": 7401,
      "Ġsoftware": 7402,
      "Ġoccur": 7403,
      "egg": 7404,
      "GD": 7405,
      "acter": 7406,
      "chronous": 7407,
      "ĠFlask": 7408,
      "clock": 7409,
      "Ġfs": 7410,
      "gradient": 7411,
      "]',": 7412,
      "START": 7413,
      "locations": 7414,
      "fx": 7415,
      "Testing": 7416,
      "842": 7417,
      "ĠSCons": 7418,
      "standard": 7419,
      "stor": 7420,
      "serialized": 7421,
      "communic": 7422,
      "ĠMO": 7423,
      "sessions": 7424,
      "Ġminimum": 7425,
      "Ġpanel": 7426,
      "dictions": 7427,
      "Replay": 7428,
      "Ġderi": 7429,
      "mtime": 7430,
      "rites": 7431,
      "Ġincluding": 7432,
      "RENT": 7433,
      "BI": 7434,
      "vors": 7435,
      "health": 7436,
      "Ren": 7437,
      "iterable": 7438,
      "Ġsimilar": 7439,
      "Ġ'$": 7440,
      "ĠFloat": 7441,
      "ĠState": 7442,
      "vg": 7443,
      "negative": 7444,
      "wrapped": 7445,
      "Null": 7446,
      "Ġgood": 7447,
      "trl": 7448,
      "Ġ34": 7449,
      "Ġcaller": 7450,
      "ĠNAME": 7451,
      "Ġ['_": 7452,
      "stand": 7453,
      "alendar": 7454,
      "guid": 7455,
      "ĠNe": 7456,
      "Eu": 7457,
      "First": 7458,
      "Headers": 7459,
      "Ġpacket": 7460,
      "ĠDocumentation": 7461,
      "WIN": 7462,
      "creator": 7463,
      "ĠFoo": 7464,
      "][\"": 7465,
      "finite": 7466,
      ".'),": 7467,
      "certificate": 7468,
      "Zone": 7469,
      "Ġfakes": 7470,
      "Ġtrigger": 7471,
      "ggest": 7472,
      "('')": 7473,
      "GF": 7474,
      "SW": 7475,
      "()).": 7476,
      "GO": 7477,
      "Ġthreads": 7478,
      "Ġoslo": 7479,
      "dae": 7480,
      "idmap": 7481,
      "php": 7482,
      "WRITE": 7483,
      "coun": 7484,
      "ĠThese": 7485,
      "ATIC": 7486,
      "ĠEnvironment": 7487,
      "rename": 7488,
      "Ġ31": 7489,
      "subscribe": 7490,
      "sentinel": 7491,
      "hat": 7492,
      "ĠFILE": 7493,
      "Ġwhite": 7494,
      "vb": 7495,
      "launch": 7496,
      "Ġdirname": 7497,
      "Ġquestion": 7498,
      "Ġdetermine": 7499,
      "orth": 7500,
      "ĠSchema": 7501,
      "GC": 7502,
      "preter": 7503,
      "2011": 7504,
      "ĠMem": 7505,
      "asis": 7506,
      "cross": 7507,
      "(\".": 7508,
      "ograph": 7509,
      "Ġchunks": 7510,
      "Cursor": 7511,
      "increment": 7512,
      "ĠFe": 7513,
      "lg": 7514,
      "erce": 7515,
      "ipher": 7516,
      "'m": 7517,
      "mes": 7518,
      "__:": 7519,
      "bounds": 7520,
      "levels": 7521,
      "UUID": 7522,
      "Ġbrowser": 7523,
      "Ġinitialized": 7524,
      "Ġcertificate": 7525,
      "drive": 7526,
      "\",),": 7527,
      "ĠLoad": 7528,
      "putVarInt": 7529,
      "limits": 7530,
      "ectors": 7531,
      "ju": 7532,
      "Ġstill": 7533,
      "met": 7534,
      "Ġgeneric": 7535,
      "Ġpol": 7536,
      "Ġnone": 7537,
      "fv": 7538,
      "Json": 7539,
      "JK": 7540,
      "dividual": 7541,
      "sz": 7542,
      "scene": 7543,
      "aussian": 7544,
      "transl": 7545,
      "bus": 7546,
      "take": 7547,
      "Selection": 7548,
      "Ġtile": 7549,
      "'](": 7550,
      "Ġhour": 7551,
      "Ġlex": 7552,
      "swift": 7553,
      "ĠAddress": 7554,
      "anded": 7555,
      "Ġthreshold": 7556,
      "ToOne": 7557,
      "Ġinitialize": 7558,
      "eper": 7559,
      "ned": 7560,
      "intain": 7561,
      "ĠME": 7562,
      "ĠToken": 7563,
      "214": 7564,
      "Ġconditions": 7565,
      "Authentication": 7566,
      "Ġmembers": 7567,
      "crop": 7568,
      "Ġaliases": 7569,
      "+\"": 7570,
      "ilent": 7571,
      "ĠRel": 7572,
      "Ġabstract": 7573,
      "ĠGET": 7574,
      "DIA": 7575,
      "DIRECT": 7576,
      "OPEN": 7577,
      "PM": 7578,
      "estim": 7579,
      "hood": 7580,
      "rappe": 7581,
      "Pi": 7582,
      "isode": 7583,
      "ATOR": 7584,
      "0000000": 7585,
      "Ġdeployment": 7586,
      "Ġprocessing": 7587,
      "itation": 7588,
      "']\"})": 7589,
      "TZ": 7590,
      "inux": 7591,
      "quo": 7592,
      "Ġcolors": 7593,
      "Ġurls": 7594,
      "NL": 7595,
      "dele": 7596,
      "Ġ29": 7597,
      "ively": 7598,
      "ĠPage": 7599,
      "Ġparsing": 7600,
      "QUI": 7601,
      "getcwd": 7602,
      "preduce": 7603,
      "mbedded": 7604,
      "Ġ\"(": 7605,
      "/?": 7606,
      "bill": 7607,
      "Ġproblem": 7608,
      "bootstrap": 7609,
      "effs": 7610,
      "800": 7611,
      "imizer": 7612,
      "morph": 7613,
      "adoop": 7614,
      "SUP": 7615,
      "ĠMatrix": 7616,
      "ĠOne": 7617,
      "Ġservers": 7618,
      "Ġcounts": 7619,
      "____": 7620,
      "kwds": 7621,
      "OBJECT": 7622,
      "PASSWORD": 7623,
      "Ġ'{}": 7624,
      "Normal": 7625,
      "rw": 7626,
      "RU": 7627,
      "tip": 7628,
      "LC": 7629,
      "pin": 7630,
      "Limit": 7631,
      "Ġtt": 7632,
      "letion": 7633,
      "Ġexamples": 7634,
      "ASH": 7635,
      "cx": 7636,
      "dj": 7637,
      "aring": 7638,
      "reload": 7639,
      "Ġftype": 7640,
      "mazon": 7641,
      "roperly": 7642,
      "copi": 7643,
      "Ġbash": 7644,
      "ĠTYPE": 7645,
      "TK": 7646,
      "Ġask": 7647,
      "Ġxfsm": 7648,
      "Ġ21": 7649,
      "AQ": 7650,
      "ĠUSE": 7651,
      "ĠTABLE": 7652,
      "vid": 7653,
      "FW": 7654,
      "Ġbelow": 7655,
      "],\\": 7656,
      "authenticated": 7657,
      "modifi": 7658,
      "ĠHel": 7659,
      "Ġlatex": 7660,
      "resolvers": 7661,
      "Ġdisabled": 7662,
      "ndor": 7663,
      "Ġhyper": 7664,
      "ĠOver": 7665,
      "dhcp": 7666,
      "otas": 7667,
      "repos": 7668,
      "Ġepoch": 7669,
      "vpn": 7670,
      "objs": 7671,
      "Registry": 7672,
      "Constant": 7673,
      "efficient": 7674,
      "Ġconfigured": 7675,
      "smart": 7676,
      "OFP": 7677,
      "rgb": 7678,
      "keystone": 7679,
      "FK": 7680,
      "dynamic": 7681,
      "Ġvol": 7682,
      "does": 7683,
      "decorator": 7684,
      "')):": 7685,
      "dence": 7686,
      "neighb": 7687,
      "clip": 7688,
      "Br": 7689,
      "ris": 7690,
      "Ġorg": 7691,
      "([],": 7692,
      "ever": 7693,
      "good": 7694,
      "ĠProtocolBuffer": 7695,
      "ĠOtherwise": 7696,
      "ĠWindows": 7697,
      "NU": 7698,
      "/(": 7699,
      ">,": 7700,
      "Ġbuiltin": 7701,
      "patcher": 7702,
      "ially": 7703,
      "cidr": 7704,
      "ECore": 7705,
      "fileno": 7706,
      "ym": 7707,
      "ĠSome": 7708,
      "memo": 7709,
      "Ġpadding": 7710,
      "JI": 7711,
      "cripts": 7712,
      "ORE": 7713,
      "TIVE": 7714,
      "ĠSite": 7715,
      "setattr": 7716,
      "ĠOP": 7717,
      "EVENT": 7718,
      "Ġpages": 7719,
      "rsync": 7720,
      "trunc": 7721,
      "qn": 7722,
      "ADDR": 7723,
      "queries": 7724,
      "formset": 7725,
      "annotations": 7726,
      "udo": 7727,
      "etree": 7728,
      "saved": 7729,
      "Ġports": 7730,
      "Ġapps": 7731,
      "ĠInput": 7732,
      "Sets": 7733,
      "TRAN": 7734,
      "croll": 7735,
      "selector": 7736,
      "rain": 7737,
      "answer": 7738,
      "ront": 7739,
      "xpath": 7740,
      "ĠMake": 7741,
      "Ġsuccessfully": 7742,
      "EMAIL": 7743,
      "Single": 7744,
      "THON": 7745,
      "athon": 7746,
      "ĠAUTH": 7747,
      "ĠIECore": 7748,
      "scriber": 7749,
      "ĠDelete": 7750,
      "Ġterms": 7751,
      "diction": 7752,
      "oration": 7753,
      "Ġknow": 7754,
      ":],": 7755,
      "figure": 7756,
      "ĠArguments": 7757,
      "Fo": 7758,
      "Convert": 7759,
      "Ġlazy": 7760,
      "Ġxs": 7761,
      "Windows": 7762,
      "unlink": 7763,
      "ĠAc": 7764,
      "DOWN": 7765,
      "Validator": 7766,
      "assertIsNot": 7767,
      "Ġgradient": 7768,
      "DP": 7769,
      "Django": 7770,
      "ouse": 7771,
      "Gen": 7772,
      "kv": 7773,
      "aign": 7774,
      "ĠApplication": 7775,
      "|'": 7776,
      "Ġcid": 7777,
      "Ġchannels": 7778,
      "cuda": 7779,
      "mv": 7780,
      "aten": 7781,
      "mooth": 7782,
      "Ġurlpatterns": 7783,
      "jY": 7784,
      "rmtree": 7785,
      "tor": 7786,
      "Ġqueries": 7787,
      "ACTION": 7788,
      "ĠTw": 7789,
      "Ġdeferred": 7790,
      "Ġrendered": 7791,
      "ffe": 7792,
      "iteral": 7793,
      "Objects": 7794,
      "=='": 7795,
      "mobile": 7796,
      "Ġ*=": 7797,
      "UX": 7798,
      "Ġ{}\".": 7799,
      "achine": 7800,
      "wp": 7801,
      "Ġbook": 7802,
      "expires": 7803,
      "rence": 7804,
      "CHOI": 7805,
      "\\\"\\": 7806,
      "building": 7807,
      "Scene": 7808,
      "Collector": 7809,
      "SERVICE": 7810,
      "datasets": 7811,
      "mgr": 7812,
      "sizes": 7813,
      "Ġredis": 7814,
      "decla": 7815,
      "ReplayAll": 7816,
      "Sample": 7817,
      "Ġ|=": 7818,
      "Ġconv": 7819,
      "ArgumentParser": 7820,
      "land": 7821,
      "attemp": 7822,
      "Ġaround": 7823,
      "\"][": 7824,
      "Ġworkspace": 7825,
      "ĠWAR": 7826,
      "Ġcompiler": 7827,
      "QI": 7828,
      "))))": 7829,
      "INDEX": 7830,
      "STY": 7831,
      "JO": 7832,
      "Ġpending": 7833,
      "UPDATE": 7834,
      "roke": 7835,
      "Ġvo": 7836,
      "disconnect": 7837,
      "HV": 7838,
      "HY": 7839,
      "tre": 7840,
      "MESSAGE": 7841,
      "Ġformatter": 7842,
      "BIT": 7843,
      "that": 7844,
      "(\"<": 7845,
      "ĠMark": 7846,
      "Structure": 7847,
      "ĠNotes": 7848,
      "KT": 7849,
      "assemb": 7850,
      "Cookie": 7851,
      "Ġ28": 7852,
      "Scale": 7853,
      "Zero": 7854,
      "Ġmag": 7855,
      "mid": 7856,
      "today": 7857,
      "bz": 7858,
      "focus": 7859,
      "ticket": 7860,
      "Global": 7861,
      "KW": 7862,
      "ATED": 7863,
      "Ġvirtual": 7864,
      "Ġless": 7865,
      "daemon": 7866,
      "KB": 7867,
      "SCH": 7868,
      "eu": 7869,
      "Ġvars": 7870,
      "allenge": 7871,
      "Fetch": 7872,
      "native": 7873,
      "dead": 7874,
      "through": 7875,
      "Ġstdin": 7876,
      "union": 7877,
      "roperlyConfigured": 7878,
      "GA": 7879,
      "QV": 7880,
      "Ġreceive": 7881,
      "collector": 7882,
      "Ġ\\'": 7883,
      "Next": 7884,
      "subclass": 7885,
      "FloatField": 7886,
      "fu": 7887,
      "qp": 7888,
      "Ġvalidator": 7889,
      "Lost": 7890,
      "Ġqual": 7891,
      "Ġconstant": 7892,
      "ria": 7893,
      "Ġentities": 7894,
      "Ġsubscription": 7895,
      "defs": 7896,
      "Ġbig": 7897,
      "Win": 7898,
      "ĠBSD": 7899,
      "vanced": 7900,
      "Ġfamily": 7901,
      "Ġactivity": 7902,
      "Ġmu": 7903,
      "Ġ-----": 7904,
      "Information": 7905,
      "adapter": 7906,
      "entities": 7907,
      "ĠAssertionError": 7908,
      "major": 7909,
      "Ġgreen": 7910,
      "ENG": 7911,
      "Ġmult": 7912,
      "Snapshot": 7913,
      "loy": 7914,
      "ĠSO": 7915,
      "quick": 7916,
      "ĠExec": 7917,
      "Accept": 7918,
      "El": 7919,
      "bla": 7920,
      "ATTR": 7921,
      "Ġsomething": 7922,
      "DecimalField": 7923,
      "bulk": 7924,
      "Ġtar": 7925,
      "LM": 7926,
      "nm": 7927,
      "Ġ{{": 7928,
      "Ġdependency": 7929,
      "Ġinside": 7930,
      "DataFrame": 7931,
      "ttl": 7932,
      "_=": 7933,
      "scr": 7934,
      "Ġvoid": 7935,
      "ĠThere": 7936,
      "mited": 7937,
      "hr": 7938,
      "Ġev": 7939,
      "Ġsen": 7940,
      "Pay": 7941,
      "currency": 7942,
      "Ġrs": 7943,
      "ĠColor": 7944,
      "Geometry": 7945,
      "Ġdimensions": 7946,
      "AIL": 7947,
      "OLD": 7948,
      "mutable": 7949,
      "Setting": 7950,
      "csrf": 7951,
      "Ġdc": 7952,
      "andidates": 7953,
      "Ġarea": 7954,
      "life": 7955,
      "Ġec": 7956,
      "ĠPa": 7957,
      "Byte": 7958,
      "\\\"$": 7959,
      "Ġannot": 7960,
      "velopers": 7961,
      "Ġthree": 7962,
      "claration": 7963,
      "ĠValue": 7964,
      "stage": 7965,
      "ĠLib": 7966,
      "requirements": 7967,
      "]\\": 7968,
      "padding": 7969,
      "Ġasync": 7970,
      "MAN": 7971,
      "dialog": 7972,
      "125": 7973,
      "ĠCH": 7974,
      "sublime": 7975,
      "ini": 7976,
      "thumbnail": 7977,
      "jj": 7978,
      "alive": 7979,
      "Ġgeo": 7980,
      "Ġrval": 7981,
      "Const": 7982,
      "MSG": 7983,
      "MULTI": 7984,
      "RIGHT": 7985,
      "Ġdep": 7986,
      "REF": 7987,
      "ĠVM": 7988,
      "signals": 7989,
      "xb": 7990,
      "ĠGit": 7991,
      "sigma": 7992,
      "*',": 7993,
      "Ġgeneral": 7994,
      "Relation": 7995,
      "staff": 7996,
      "ĠSelect": 7997,
      "deferred": 7998,
      "Interval": 7999,
      "jected": 8000,
      "Ġtf": 8001,
      "ĠWARRAN": 8002,
      "WX": 8003,
      "tls": 8004,
      "Ġtools": 8005,
      "Ġrepos": 8006,
      "routes": 8007,
      "11111111": 8008,
      "MODEL": 8009,
      "|\\": 8010,
      "seudo": 8011,
      "sf": 8012,
      "ctor": 8013,
      "('{": 8014,
      "Ġdays": 8015,
      "dry": 8016,
      "hide": 8017,
      "Setup": 8018,
      "TLS": 8019,
      "checked": 8020,
      "algorithm": 8021,
      "Ġxl": 8022,
      "Dest": 8023,
      "iy": 8024,
      "ĠPass": 8025,
      "ĠContain": 8026,
      "BD": 8027,
      "WID": 8028,
      "jpg": 8029,
      "Ġdocstring": 8030,
      "Az": 8031,
      "GK": 8032,
      "WV": 8033,
      "wm": 8034,
      "ana": 8035,
      "Section": 8036,
      "Jy": 8037,
      "nor": 8038,
      "ĠSto": 8039,
      "Tools": 8040,
      "Ġruns": 8041,
      "QUERY": 8042,
      "workspace": 8043,
      "Arch": 8044,
      "nii": 8045,
      "FM": 8046,
      "Sa": 8047,
      "vtk": 8048,
      "ada": 8049,
      "---+": 8050,
      "validators": 8051,
      "Ġrepresents": 8052,
      "Ġrand": 8053,
      "ĠCloud": 8054,
      "ocus": 8055,
      "published": 8056,
      "Ġready": 8057,
      "alert": 8058,
      "lst": 8059,
      "Net": 8060,
      "STYLE": 8061,
      "ilo": 8062,
      "Ġdocs": 8063,
      "Running": 8064,
      "Ġce": 8065,
      "Ġretval": 8066,
      "hexdigest": 8067,
      "Merge": 8068,
      "xyz": 8069,
      "Ġserial": 8070,
      "Uns": 8071,
      "vv": 8072,
      "Adapter": 8073,
      "OAuth": 8074,
      "swap": 8075,
      "Ġxmlns": 8076,
      "pip": 8077,
      "iving": 8078,
      "containers": 8079,
      "minute": 8080,
      "GY": 8081,
      "friend": 8082,
      "gamma": 8083,
      "Ġrespon": 8084,
      "=''):": 8085,
      "Ġstrict": 8086,
      "mesh": 8087,
      "TEXTNS": 8088,
      "SETTINGS": 8089,
      "LB": 8090,
      "PX": 8091,
      "APPS": 8092,
      "ea": 8093,
      "ventory": 8094,
      "Ġpprint": 8095,
      "Any": 8096,
      "Ġ27": 8097,
      "dates": 8098,
      "TX": 8099,
      "cation": 8100,
      "apache": 8101,
      "ĠEd": 8102,
      "arb": 8103,
      "Ġtran": 8104,
      "Ġstmt": 8105,
      "'\")": 8106,
      "Rect": 8107,
      "litext": 8108,
      "Ġ'%(": 8109,
      "Den": 8110,
      "positive": 8111,
      "ĠDataFrame": 8112,
      "PROJECT": 8113,
      "0000000000000000": 8114,
      "NONE": 8115,
      "Ġbal": 8116,
      "Ġlater": 8117,
      "/{}": 8118,
      "Ġlogs": 8119,
      "Ġ'?": 8120,
      "SECRE": 8121,
      "Left": 8122,
      "recipient": 8123,
      "Lj": 8124,
      "Ġgra": 8125,
      "ARGS": 8126,
      "ina": 8127,
      "Ġsklearn": 8128,
      "Nz": 8129,
      "Ġ26": 8130,
      "']):": 8131,
      "ĠEV": 8132,
      "Ġmanifest": 8133,
      "MX": 8134,
      "SB": 8135,
      "lify": 8136,
      "bold": 8137,
      "Ġactor": 8138,
      "Ġincludes": 8139,
      "\"/>": 8140,
      "domains": 8141,
      "andbox": 8142,
      "Ġfloating": 8143,
      "cells": 8144,
      "ĠMethod": 8145,
      "Done": 8146,
      "Ġ(?": 8147,
      "Named": 8148,
      "DateField": 8149,
      "ARCH": 8150,
      "Symbol": 8151,
      "chr": 8152,
      "pointer": 8153,
      "HR": 8154,
      "Hz": 8155,
      "strs": 8156,
      "Ġ[{": 8157,
      "artbeat": 8158,
      "\"')": 8159,
      "Ġndarray": 8160,
      "bases": 8161,
      "!')": 8162,
      "Ġmight": 8163,
      "icip": 8164,
      "irror": 8165,
      "Ġopenstack": 8166,
      "randn": 8167,
      "Ġcycle": 8168,
      "caten": 8169,
      "={\"": 8170,
      "Ġautos": 8171,
      "rollback": 8172,
      "Groups": 8173,
      "QY": 8174,
      "REMO": 8175,
      "symbols": 8176,
      "mn": 8177,
      "Ġtranslation": 8178,
      "ctrl": 8179,
      "ĠArticle": 8180,
      "bn": 8181,
      "theta": 8182,
      "marks": 8183,
      "\"',": 8184,
      "Ġdetail": 8185,
      "ĠGiven": 8186,
      "Ġalong": 8187,
      "IDD": 8188,
      "uniform": 8189,
      "Scal": 8190,
      "geometry": 8191,
      "extended": 8192,
      "Ġseque": 8193,
      "ACCESS": 8194,
      "Actor": 8195,
      "ggle": 8196,
      "sensitive": 8197,
      "mplement": 8198,
      "ĠConfiguration": 8199,
      "/.": 8200,
      "Ġrecipient": 8201,
      "chanis": 8202,
      "kt": 8203,
      "ippet": 8204,
      "ĠWhether": 8205,
      "bindings": 8206,
      "neg": 8207,
      "Route": 8208,
      "hours": 8209,
      "SCRIPT": 8210,
      "bw": 8211,
      "general": 8212,
      "Ġ||": 8213,
      "Ġannotation": 8214,
      "sence": 8215,
      "deps": 8216,
      "RequestHandler": 8217,
      "IsA": 8218,
      "CCESS": 8219,
      "ATTRI": 8220,
      "LIMIT": 8221,
      "hp": 8222,
      "Ġbackwards": 8223,
      "gmail": 8224,
      "ĠSign": 8225,
      "Ġuni": 8226,
      "Ġactually": 8227,
      "ĠPerson": 8228,
      "-+": 8229,
      "ey": 8230,
      "Exists": 8231,
      "checks": 8232,
      "generated": 8233,
      "POINTER": 8234,
      "FromString": 8235,
      "kze": 8236,
      "portal": 8237,
      "Ġframework": 8238,
      "=\"\"\"": 8239,
      "removed": 8240,
      "Ġappear": 8241,
      "morphic": 8242,
      "gray": 8243,
      "ĠSearch": 8244,
      "Ġcopyright": 8245,
      "candidate": 8246,
      "Ġdisable": 8247,
      "cade": 8248,
      "Almost": 8249,
      "Ġsqlite": 8250,
      "Ġcr": 8251,
      "ĠStart": 8252,
      "Ġbr": 8253,
      "LEV": 8254,
      "WARNING": 8255,
      "guest": 8256,
      "moving": 8257,
      "digit": 8258,
      "TP": 8259,
      "WY": 8260,
      "svn": 8261,
      ":\")": 8262,
      "Slug": 8263,
      "broadcast": 8264,
      "ience": 8265,
      "1570": 8266,
      "ĠPlugin": 8267,
      "sudo": 8268,
      "ios": 8269,
      "Ġ([": 8270,
      "typ": 8271,
      "kzeug": 8272,
      "AST": 8273,
      "Ġprepare": 8274,
      "Ġindexes": 8275,
      "Enter": 8276,
      "Ġfails": 8277,
      "curl": 8278,
      "aker": 8279,
      "aps": 8280,
      "ĠCode": 8281,
      "udience": 8282,
      "ITE": 8283,
      "Ġindicating": 8284,
      "Nj": 8285,
      "Virtual": 8286,
      "Hook": 8287,
      "tracker": 8288,
      "Ġsigma": 8289,
      "GQ": 8290,
      "ĠFilter": 8291,
      "WF": 8292,
      "Ġcollect": 8293,
      "Shape": 8294,
      "lery": 8295,
      "Queryset": 8296,
      "FILES": 8297,
      "iB": 8298,
      "Ġrefresh": 8299,
      "Ġgc": 8300,
      "AlmostEqual": 8301,
      "Mz": 8302,
      "Click": 8303,
      "Install": 8304,
      "retries": 8305,
      "Ho": 8306,
      "Ġpositive": 8307,
      "Total": 8308,
      "Ġinline": 8309,
      "Ġ256": 8310,
      "jam": 8311,
      "tempdir": 8312,
      "([])": 8313,
      "HP": 8314,
      "migrate": 8315,
      "_))": 8316,
      "cas": 8317,
      "Ġremaining": 8318,
      "workers": 8319,
      "SECRET": 8320,
      "Zh": 8321,
      "Fin": 8322,
      "Ġsparse": 8323,
      "Ġcorrectly": 8324,
      "Align": 8325,
      "Pickle": 8326,
      "Ġreturning": 8327,
      "Ġclassifiers": 8328,
      "111": 8329,
      "VL": 8330,
      "Area": 8331,
      "Ġturn": 8332,
      "ONT": 8333,
      "unce": 8334,
      "ĠLO": 8335,
      "ĠĠĠĠĠĠĠĠĠĠĠĠĠĠĠĠĠĠĠ": 8336,
      "PropertyType": 8337,
      "meter": 8338,
      "Ġlst": 8339,
      "Ġbottom": 8340,
      "GU": 8341,
      "Ġcpu": 8342,
      "roken": 8343,
      "average": 8344,
      "xa": 8345,
      "Ġgdata": 8346,
      "mitive": 8347,
      "Ġfiltered": 8348,
      "ginx": 8349,
      "Ġassigned": 8350,
      "ĠAbstract": 8351,
      "ĠDist": 8352,
      "Related": 8353,
      "ĠPub": 8354,
      "MPTY": 8355,
      "Ġfinished": 8356,
      "mut": 8357,
      "rdf": 8358,
      "Ġ\"['": 8359,
      "ĠSource": 8360,
      "Ġextend": 8361,
      "Ġaccording": 8362,
      "editable": 8363,
      "Optional": 8364,
      "bridge": 8365,
      ",%": 8366,
      "cha": 8367,
      "ĠPAR": 8368,
      "ople": 8369,
      "Functions": 8370,
      "gation": 8371,
      "Ġ'..": 8372,
      "ĠMax": 8373,
      "Cond": 8374,
      "twitter": 8375,
      "clause": 8376,
      "joined": 8377,
      "inspect": 8378,
      "hl": 8379,
      "Ġpm": 8380,
      "))]": 8381,
      "COLOR": 8382,
      "RGB": 8383,
      "Insert": 8384,
      "Iterator": 8385,
      "ov": 8386,
      "callbacks": 8387,
      "restart": 8388,
      "imation": 8389,
      "FAIL": 8390,
      "FX": 8391,
      "jid": 8392,
      "ALLED": 8393,
      "14842": 8394,
      "eved": 8395,
      "ulator": 8396,
      "SyntaxError": 8397,
      "Ġdefines": 8398,
      "ĠAnd": 8399,
      "addon": 8400,
      "what": 8401,
      "peated": 8402,
      "coverage": 8403,
      "presen": 8404,
      "ENABLE": 8405,
      "Ġ1171570": 8406,
      "Ġ11714842": 8407,
      "Ġexactly": 8408,
      "Fy": 8409,
      "ining": 8410,
      "ĠUsed": 8411,
      "Ġsyn": 8412,
      "define": 8413,
      "FLAG": 8414,
      "Ġut": 8415,
      "ropy": 8416,
      "Za": 8417,
      "ampling": 8418,
      "Ġvals": 8419,
      "ĠChange": 8420,
      "ToOneField": 8421,
      "xi": 8422,
      "Ġtraining": 8423,
      "Ġtxt": 8424,
      "loading": 8425,
      "Dataset": 8426,
      "RET": 8427,
      "ranges": 8428,
      "RB": 8429,
      "verbosity": 8430,
      "ĠHttpResponseRedirect": 8431,
      "Ġtol": 8432,
      "variant": 8433,
      "10000": 8434,
      "ĠRemove": 8435,
      "Ġcreates": 8436,
      "Tags": 8437,
      "avi": 8438,
      "CONN": 8439,
      "LW": 8440,
      "Ġroom": 8441,
      "VC": 8442,
      "UTE": 8443,
      "Ġta": 8444,
      "Ġisn": 8445,
      "Ġtrait": 8446,
      "Renderer": 8447,
      "pur": 8448,
      "dense": 8449,
      "Ġforward": 8450,
      "];": 8451,
      "Ġ300": 8452,
      "Ġscalar": 8453,
      "asta": 8454,
      "Ġmatched": 8455,
      "Af": 8456,
      "Ids": 8457,
      "THER": 8458,
      "ĠAppro": 8459,
      "Ġrhs": 8460,
      "rontend": 8461,
      "perms": 8462,
      ">.": 8463,
      "Ġcard": 8464,
      "lid": 8465,
      "STEM": 8466,
      "XXXX": 8467,
      "DNS": 8468,
      "NP": 8469,
      "quit": 8470,
      "ILITY": 8471,
      "ĠResult": 8472,
      "vY": 8473,
      "ĠVALUE": 8474,
      "HJ": 8475,
      "deri": 8476,
      "Ġlogged": 8477,
      "ĠRPC": 8478,
      "+',": 8479,
      "cg": 8480,
      ")?": 8481,
      "ighted": 8482,
      "scopes": 8483,
      "Processor": 8484,
      "Ġdue": 8485,
      "vey": 8486,
      "finder": 8487,
      "=\"\",": 8488,
      "Ġradius": 8489,
      "Ġequivalent": 8490,
      "Ġruntime": 8491,
      "ĠFrame": 8492,
      "akref": 8493,
      "Elements": 8494,
      "Ġcleanup": 8495,
      "restore": 8496,
      "Conver": 8497,
      "Ġdirs": 8498,
      "TEGER": 8499,
      "Ġrecur": 8500,
      "OX": 8501,
      "[%": 8502,
      "horizontal": 8503,
      "DK": 8504,
      "LK": 8505,
      "ĠImproperlyConfigured": 8506,
      "']}": 8507,
      "Ġms": 8508,
      "Utils": 8509,
      "vx": 8510,
      "URN": 8511,
      "encoder": 8512,
      "Register": 8513,
      "ZK": 8514,
      "ĠChar": 8515,
      "Ġfrappe": 8516,
      "Ġsep": 8517,
      "Ġ1234": 8518,
      "bidden": 8519,
      "Ġcross": 8520,
      "icles": 8521,
      "SSH": 8522,
      "Ġunderlying": 8523,
      "Ġissub": 8524,
      "Ġmgr": 8525,
      "STAT": 8526,
      "Called": 8527,
      "Ġ(('": 8528,
      "transfer": 8529,
      "Points": 8530,
      "Ġpygments": 8531,
      "bitrary": 8532,
      "Ġaggregate": 8533,
      "extent": 8534,
      "Ġ==========": 8535,
      "ĠBook": 8536,
      "LOCAL": 8537,
      "orator": 8538,
      "izard": 8539,
      "literal": 8540,
      "ĠSELECT": 8541,
      "150": 8542,
      "qr": 8543,
      "indic": 8544,
      "robot": 8545,
      "riteria": 8546,
      "Ġcodecs": 8547,
      "FFER": 8548,
      "male": 8549,
      "ulated": 8550,
      "WM": 8551,
      "Ġinstanti": 8552,
      "Mod": 8553,
      "Example": 8554,
      "SG": 8555,
      "Ġprocessed": 8556,
      "precationWarning": 8557,
      "Xs": 8558,
      "ĠStopIteration": 8559,
      "Zm": 8560,
      "spi": 8561,
      "Ġinterfaces": 8562,
      "Router": 8563,
      "Ġdom": 8564,
      "ĠTe": 8565,
      "Decode": 8566,
      "parents": 8567,
      "Ġdele": 8568,
      "logged": 8569,
      "Ġlisten": 8570,
      "encoded": 8571,
      "Bit": 8572,
      "Ġred": 8573,
      "Ġenter": 8574,
      "construct": 8575,
      "Ġsignals": 8576,
      "Oc": 8577,
      "wg": 8578,
      "!\"": 8579,
      "difference": 8580,
      "EQ": 8581,
      "Ġpreserve": 8582,
      "Internal": 8583,
      "ĠRet": 8584,
      "Pop": 8585,
      "cpus": 8586,
      "6666": 8587,
      "Sync": 8588,
      "ĠFormat": 8589,
      "bel": 8590,
      "lv": 8591,
      "ALI": 8592,
      "ĠSets": 8593,
      "Ġes": 8594,
      "Ġnegative": 8595,
      "quation": 8596,
      "Ġplain": 8597,
      "Ġcmp": 8598,
      "FFFF": 8599,
      "ĠBasic": 8600,
      "COM": 8601,
      "Ġarrays": 8602,
      "Keyword": 8603,
      "Ġsymbols": 8604,
      "assertIsNotNone": 8605,
      "Ġ========": 8606,
      "BinaryProtocol": 8607,
      "ircu": 8608,
      "Ġnetworks": 8609,
      "ĠOUT": 8610,
      "Ġlatest": 8611,
      "Worker": 8612,
      "RAW": 8613,
      "ĠWor": 8614,
      "ĠVariable": 8615,
      "CLIENT": 8616,
      "Certificate": 8617,
      "RD": 8618,
      "Pattern": 8619,
      "Cs": 8620,
      "hu": 8621,
      "setLevel": 8622,
      "Ġproduce": 8623,
      "BQ": 8624,
      "Contents": 8625,
      "ĠCal": 8626,
      "perform": 8627,
      "copia": 8628,
      "xz": 8629,
      "'\"},": 8630,
      "Hy": 8631,
      "qi": 8632,
      "ĠCreates": 8633,
      "ĠEnum": 8634,
      "Interrupt": 8635,
      "Active": 8636,
      "EG": 8637,
      "receiver": 8638,
      "...\"": 8639,
      "ĠDict": 8640,
      "Jz": 8641,
      "otify": 8642,
      "CG": 8643,
      "Draw": 8644,
      "zie": 8645,
      "Ġirc": 8646,
      "RS": 8647,
      "benchmark": 8648,
      "Ġus": 8649,
      "%%": 8650,
      "multip": 8651,
      "patial": 8652,
      "spose": 8653,
      "Ġwrong": 8654,
      "Ġoverwrite": 8655,
      "ji": 8656,
      "LEFT": 8657,
      "completion": 8658,
      "drag": 8659,
      "Ġcancel": 8660,
      "Ġmouse": 8661,
      "authors": 8662,
      "ranches": 8663,
      "Ġexecutable": 8664,
      "CannotContain": 8665,
      "Tr": 8666,
      "sect": 8667,
      "fakes": 8668,
      "kn": 8669,
      "Ġ-.": 8670,
      "offi": 8671,
      "CKET": 8672,
      "pended": 8673,
      "]\"": 8674,
      "rott": 8675,
      "Ġdynamic": 8676,
      "Repository": 8677,
      "Ġrank": 8678,
      "Ġreserved": 8679,
      "splitext": 8680,
      "servable": 8681,
      "Ġordered": 8682,
      "ivy": 8683,
      "CHOICES": 8684,
      "Counter": 8685,
      "LES": 8686,
      "Ġfrozenset": 8687,
      "~~~~~~~~~~~~~~~~": 8688,
      "ORMAL": 8689,
      "Note": 8690,
      "serted": 8691,
      "Ġlarge": 8692,
      "CQ": 8693,
      "LANG": 8694,
      "]{": 8695,
      "mpath": 8696,
      "ORD": 8697,
      "FIL": 8698,
      "Ġlocalparam": 8699,
      "audio": 8700,
      "Fixture": 8701,
      "bian": 8702,
      "wraps": 8703,
      "ĠindependentData": 8704,
      "readonly": 8705,
      "Ġscene": 8706,
      "locked": 8707,
      "Ġserialized": 8708,
      "ENGINE": 8709,
      "Batch": 8710,
      "urlopen": 8711,
      "Ġfilepath": 8712,
      "AU": 8713,
      "Ġissubclass": 8714,
      "Ġreferences": 8715,
      "king": 8716,
      "Ġsteps": 8717,
      "Ġwsgi": 8718,
      "Diff": 8719,
      "Slice": 8720,
      "Ġws": 8721,
      "------------": 8722,
      "Book": 8723,
      "bt": 8724,
      "nv": 8725,
      "ObjectPropertyType": 8726,
      "communicate": 8727,
      "into": 8728,
      "else": 8729,
      "ĠThread": 8730,
      "Ġfun": 8731,
      "blueprint": 8732,
      "Ġhidden": 8733,
      "TW": 8734,
      "wc": 8735,
      "(\"{": 8736,
      "MJ": 8737,
      "rg": 8738,
      "Ġunless": 8739,
      "Ġmac": 8740,
      "Ġlinear": 8741,
      "Static": 8742,
      "Workflow": 8743,
      "KeyError": 8744,
      "boto": 8745,
      "cod": 8746,
      "Ġlb": 8747,
      "registered": 8748,
      "ĠAdmin": 8749,
      "qK": 8750,
      "([^": 8751,
      "rfc": 8752,
      "dictionary": 8753,
      "Ġdigest": 8754,
      "openid": 8755,
      "flask": 8756,
      "urlencode": 8757,
      "ĠOptions": 8758,
      "Ġpeer": 8759,
      "manual": 8760,
      "evaluate": 8761,
      "Mj": 8762,
      "hm": 8763,
      "ptime": 8764,
      "Common": 8765,
      "nat": 8766,
      "LF": 8767,
      "isten": 8768,
      "Ġspecifies": 8769,
      "OneToOneField": 8770,
      "uk": 8771,
      "lette": 8772,
      "QuerysetEqual": 8773,
      "fid": 8774,
      "asource": 8775,
      "dicts": 8776,
      "Ġliter": 8777,
      "Ġformats": 8778,
      "INI": 8779,
      "Statement": 8780,
      "reet": 8781,
      "idle": 8782,
      "postgres": 8783,
      "Ġfragment": 8784,
      "ban": 8785,
      "arest": 8786,
      "Ġsqrt": 8787,
      "Ġfire": 8788,
      "Ġtok": 8789,
      "Ġsigned": 8790,
      "Split": 8791,
      "RAY": 8792,
      "](": 8793,
      "tok": 8794,
      "Ak": 8795,
      "Encoding": 8796,
      "sqlalchemy": 8797,
      "ĠSp": 8798,
      "hop": 8799,
      "Ġchr": 8800,
      "hv": 8801,
      "shake": 8802,
      "Coeffs": 8803,
      "trait": 8804,
      "EB": 8805,
      "GN": 8806,
      "upported": 8807,
      "ĠSeries": 8808,
      "Ġconfirm": 8809,
      "ĠJob": 8810,
      "WK": 8811,
      "Ġarch": 8812,
      "Ġ/>": 8813,
      "hz": 8814,
      "deprecated": 8815,
      "Ġprops": 8816,
      "=\"/": 8817,
      "locator": 8818,
      "Attach": 8819,
      "assertQuerysetEqual": 8820,
      "Ġsto": 8821,
      "tun": 8822,
      "slave": 8823,
      "funcs": 8824,
      "metaclass": 8825,
      "README": 8826,
      "([('": 8827,
      "terminal": 8828,
      "WIDTH": 8829,
      "RQ": 8830,
      "ĠAccess": 8831,
      "Ġ128": 8832,
      "realm": 8833,
      "assignment": 8834,
      "HX": 8835,
      "Ġgevent": 8836,
      "pv": 8837,
      "CHEC": 8838,
      "cms": 8839,
      "wi": 8840,
      "Manage": 8841,
      "CLO": 8842,
      "namespaces": 8843,
      "Ġ('_": 8844,
      "Ġgs": 8845,
      "Ġtemporary": 8846,
      "cmds": 8847,
      "Ġcandidate": 8848,
      "Signal": 8849,
      "Assign": 8850,
      "LEVEL": 8851,
      ">/": 8852,
      "album": 8853,
      "Ġspecification": 8854,
      "strategy": 8855,
      "ĠBlock": 8856,
      "RESULT": 8857,
      "Im": 8858,
      "MAR": 8859,
      "Ġ'&": 8860,
      "),('": 8861,
      "Ġind": 8862,
      "Ġoptparse": 8863,
      "human": 8864,
      "serializers": 8865,
      "ĠSec": 8866,
      "ĠAudience": 8867,
      "Ġdoctest": 8868,
      "large": 8869,
      "arc": 8870,
      "processes": 8871,
      "ĠPri": 8872,
      "minimum": 8873,
      "Ġrobot": 8874,
      "ĠRule": 8875,
      "Ġ\"('": 8876,
      "Ġprecision": 8877,
      "Ġcer": 8878,
      "TestSuite": 8879,
      "Ġscripts": 8880,
      "META": 8881,
      "regions": 8882,
      "Zz": 8883,
      "ĠAR": 8884,
      "Ġchecked": 8885,
      "FQ": 8886,
      "PV": 8887,
      "IPv": 8888,
      ":,": 8889,
      "lstrip": 8890,
      "Ġlight": 8891,
      "ihood": 8892,
      "reed": 8893,
      "Cleanup": 8894,
      "Ġmigration": 8895,
      "Intended": 8896,
      "osition": 8897,
      "HB": 8898,
      "xls": 8899,
      "apon": 8900,
      "verity": 8901,
      "LOAT": 8902,
      "kl": 8903,
      "ĠLink": 8904,
      "AW": 8905,
      "nf": 8906,
      "IGN": 8907,
      "Ġhandling": 8908,
      "CMD": 8909,
      "Ġdx": 8910,
      "RESP": 8911,
      "Operator": 8912,
      "Ġrepeat": 8913,
      "Ġcalculate": 8914,
      "Ġcountry": 8915,
      "separator": 8916,
      "Edge": 8917,
      "ajax": 8918,
      "iming": 8919,
      "subset": 8920,
      "ZY": 8921,
      "btn": 8922,
      "Ġcf": 8923,
      "ĠTree": 8924,
      "Ġdeli": 8925,
      "NB": 8926,
      "Ġabort": 8927,
      "erature": 8928,
      "ctime": 8929,
      "fet": 8930,
      "pf": 8931,
      "Ġmount": 8932,
      "Ġentire": 8933,
      "ĠCl": 8934,
      "jb": 8935,
      "cuts": 8936,
      "ster": 8937,
      "olr": 8938,
      "DV": 8939,
      "Ġmimetype": 8940,
      "floor": 8941,
      "mf": 8942,
      "UK": 8943,
      "about": 8944,
      "presentation": 8945,
      "strail": 8946,
      "ASK": 8947,
      "':('": 8948,
      "Ġalt": 8949,
      "caller": 8950,
      "='\\\\": 8951,
      "PG": 8952,
      "former": 8953,
      "Ġsmart": 8954,
      "cceed": 8955,
      "PF": 8956,
      "}]": 8957,
      "Ġpip": 8958,
      "Ġfunctionality": 8959,
      "Ġoverrid": 8960,
      "wY": 8961,
      "REAM": 8962,
      "ĠnodeName": 8963,
      "collections": 8964,
      "Move": 8965,
      "Ġtranslate": 8966,
      "ATTRIBU": 8967,
      "MF": 8968,
      "NX": 8969,
      "sms": 8970,
      "secs": 8971,
      "tot": 8972,
      "Ġstub": 8973,
      "viewer": 8974,
      "matched": 8975,
      "Zip": 8976,
      "erry": 8977,
      "Authorization": 8978,
      "Ġhist": 8979,
      "Scheduler": 8980,
      "Ġsmall": 8981,
      "Ġdelimiter": 8982,
      "logout": 8983,
      "combin": 8984,
      "Ġimmediate": 8985,
      "033": 8986,
      "resolution": 8987,
      "4000": 8988,
      "JB": 8989,
      "phinx": 8990,
      "253": 8991,
      "Expr": 8992,
      "readlines": 8993,
      "aterial": 8994,
      "Ġnothing": 8995,
      "Compute": 8996,
      "constructor": 8997,
      "hosting": 8998,
      "Features": 8999,
      "clusters": 9000,
      "assertNotIn": 9001,
      "mC": 9002,
      "uY": 9003,
      "()``": 9004,
      "Ġanaly": 9005,
      "ABEL": 9006,
      "makeOne": 9007,
      "nw": 9008,
      "etter": 9009,
      "Ġautospec": 9010,
      "IQ": 9011,
      "ribution": 9012,
      "esh": 9013,
      "Ġpixels": 9014,
      "ĠinCoeffs": 9015,
      "99999999": 9016,
      "ĠExtension": 9017,
      "Regexp": 9018,
      "SPE": 9019,
      "Ġsct": 9020,
      "ĠUUID": 9021,
      "Timer": 9022,
      "nonce": 9023,
      "RV": 9024,
      "jd": 9025,
      "UY": 9026,
      "ellow": 9027,
      "WT": 9028,
      "was": 9029,
      "segments": 9030,
      "aggreg": 9031,
      "SZ": 9032,
      "ares": 9033,
      "Ġmemo": 9034,
      "Ġzer": 9035,
      "Language": 9036,
      "Ġreading": 9037,
      "hc": 9038,
      "Ġangle": 9039,
      "Ġtail": 9040,
      "submission": 9041,
      "numeric": 9042,
      "ĠRO": 9043,
      "sia": 9044,
      "PAGE": 9045,
      "linalg": 9046,
      "urlresolvers": 9047,
      "scroll": 9048,
      "descr": 9049,
      "ĠCurrent": 9050,
      "ĠApache": 9051,
      "calculate": 9052,
      "sections": 9053,
      "ats": 9054,
      "gination": 9055,
      "Ġprocesses": 9056,
      "vote": 9057,
      "lf": 9058,
      "ĠCalled": 9059,
      "UF": 9060,
      "Ġdevices": 9061,
      "REGI": 9062,
      "ĠHost": 9063,
      "Ġshare": 9064,
      "Ġevalu": 9065,
      "liance": 9066,
      "heritance": 9067,
      "UNKNOWN": 9068,
      "ĠAss": 9069,
      "trial": 9070,
      "INSER": 9071,
      "providers": 9072,
      "UAGE": 9073,
      "Ġ2015": 9074,
      "=\\\"${": 9075,
      "Ġ\"\"\"\\": 9076,
      "chanism": 9077,
      "Machine": 9078,
      "schemas": 9079,
      "describe": 9080,
      "LV": 9081,
      "Sk": 9082,
      "WB": 9083,
      "Gr": 9084,
      "addWidget": 9085,
      "corder": 9086,
      "Ġadding": 9087,
      "bench": 9088,
      "ĠSkip": 9089,
      "ĠLIC": 9090,
      "ĠParameter": 9091,
      "ĠDeferred": 9092,
      "Ġplaceholder": 9093,
      "Ġbasename": 9094,
      "History": 9095,
      "Contact": 9096,
      "Ġnodelist": 9097,
      "Ġprocessor": 9098,
      "Ġphone": 9099,
      "Ġ==================================": 9100,
      "xm": 9101,
      "pause": 9102,
      "FileName": 9103,
      "Ġverbosity": 9104,
      "))),": 9105,
      "Ġmis": 9106,
      "],[": 9107,
      "hdr": 9108,
      "jamas": 9109,
      "Zo": 9110,
      "working": 9111,
      "grant": 9112,
      "reenas": 9113,
      "Ġvarious": 9114,
      "Ġtimer": 9115,
      "Ġdirectories": 9116,
      "HQ": 9117,
      "ilon": 9118,
      "illa": 9119,
      "Ġshard": 9120,
      "msgs": 9121,
      "Ġimported": 9122,
      "ĠMay": 9123,
      "OV": 9124,
      "Chain": 9125,
      "Ġmanagement": 9126,
      "_('": 9127,
      "horizon": 9128,
      "wrong": 9129,
      "Ġsin": 9130,
      "ĠFla": 9131,
      "dicates": 9132,
      "CHANGE": 9133,
      "WD": 9134,
      "products": 9135,
      "ĠLabel": 9136,
      "ĠAttributes": 9137,
      "fullname": 9138,
      "Rad": 9139,
      "Creates": 9140,
      "Ġfigure": 9141,
      "onal": 9142,
      "exchange": 9143,
      "ĠAL": 9144,
      "vertical": 9145,
      "etag": 9146,
      "fully": 9147,
      "boardInterrupt": 9148,
      "reports": 9149,
      "modify": 9150,
      "phase": 9151,
      "(\\\\": 9152,
      "MG": 9153,
      "[[": 9154,
      "compiled": 9155,
      "SIS": 9156,
      "2001": 9157,
      "Ġattachment": 9158,
      "Ġ%%": 9159,
      "policies": 9160,
      "ZJ": 9161,
      "Ġsheet": 9162,
      "MTP": 9163,
      "Sheet": 9164,
      "ĠDoc": 9165,
      "Ġindicates": 9166,
      "Zy": 9167,
      "xies": 9168,
      "Ġinte": 9169,
      "ĠHow": 9170,
      "Ġcoordinates": 9171,
      "AWS": 9172,
      "design": 9173,
      "ĠCache": 9174,
      "checksum": 9175,
      "Ġvalidators": 9176,
      "profiler": 9177,
      "deserialize": 9178,
      "ĠForeignKey": 9179,
      "INET": 9180,
      "sal": 9181,
      "Long": 9182,
      "Vo": 9183,
      "ĠSER": 9184,
      "Ġnamespaces": 9185,
      "Ġgets": 9186,
      "Ġadapter": 9187,
      "Pl": 9188,
      "anonymous": 9189,
      "vX": 9190,
      "OPTIONS": 9191,
      "maker": 9192,
      ".*?": 9193,
      "DX": 9194,
      "hit": 9195,
      "hot": 9196,
      "calendar": 9197,
      "ands": 9198,
      "Commit": 9199,
      "SlugField": 9200,
      "fX": 9201,
      "Ġdialect": 9202,
      "Ġbinding": 9203,
      "Small": 9204,
      "Hi": 9205,
      "Async": 9206,
      "Ġinp": 9207,
      "Ġ\"\"\",": 9208,
      "')],": 9209,
      "ĠLICENSE": 9210,
      "frequency": 9211,
      "hits": 9212,
      "additional": 9213,
      "ocab": 9214,
      "Ġindividual": 9215,
      "vendor": 9216,
      "EF": 9217,
      "LEN": 9218,
      "326": 9219,
      "Ġquo": 9220,
      "Io": 9221,
      "gY": 9222,
      "atrices": 9223,
      "Ġexpires": 9224,
      "Signature": 9225,
      "ĠSu": 9226,
      "SIGN": 9227,
      "235": 9228,
      "dialect": 9229,
      "ĠVector": 9230,
      "books": 9231,
      "sequent": 9232,
      "Ġflush": 9233,
      "ABC": 9234,
      "Alias": 9235,
      "yr": 9236,
      "Ġattached": 9237,
      "INSERT": 9238,
      "always": 9239,
      "vered": 9240,
      "assertAlmostEqual": 9241,
      "illar": 9242,
      "syntax": 9243,
      "Public": 9244,
      "JY": 9245,
      "Ġlonger": 9246,
      "edu": 9247,
      "Ġiteration": 9248,
      "hara": 9249,
      "BadRequest": 9250,
      "ĠLocal": 9251,
      "Ġeps": 9252,
      "Ġcos": 9253,
      "Ġloading": 9254,
      "Callbacks": 9255,
      "BLOCK": 9256,
      "recursive": 9257,
      "ĠBY": 9258,
      "phrase": 9259,
      "URLField": 9260,
      "'),('": 9261,
      "Ġzfsm": 9262,
      "SUCCESS": 9263,
      "Ġseparate": 9264,
      "Ns": 9265,
      "!'": 9266,
      "*,": 9267,
      "Ġcompleted": 9268,
      "Unexpected": 9269,
      "ssue": 9270,
      "Ju": 9271,
      "matching": 9272,
      "payment": 9273,
      ":]:": 9274,
      "ĠShould": 9275,
      "BUFFER": 9276,
      "EmailField": 9277,
      "shuffle": 9278,
      "ĠProperty": 9279,
      "Clear": 9280,
      "Gu": 9281,
      "Ġvec": 9282,
      "incip": 9283,
      "Wx": 9284,
      "obs": 9285,
      "Ġaverage": 9286,
      "Ġvery": 9287,
      "VB": 9288,
      "Ġserializers": 9289,
      "spac": 9290,
      "Short": 9291,
      "ĠWARRANTIES": 9292,
      "wr": 9293,
      "POSI": 9294,
      "canonical": 9295,
      "wf": 9296,
      "vim": 9297,
      "imization": 9298,
      "Created": 9299,
      "Ġdescrib": 9300,
      "()}": 9301,
      "Ġring": 9302,
      "ĠBack": 9303,
      "tuples": 9304,
      "After": 9305,
      "Free": 9306,
      "Ġlive": 9307,
      "Ġsl": 9308,
      "Ġcast": 9309,
      "()['": 9310,
      "legal": 9311,
      "leaf": 9312,
      "Ġplease": 9313,
      "DataCacheDictionary": 9314,
      "crypto": 9315,
      "filer": 9316,
      "authorization": 9317,
      "stubs": 9318,
      "abstractmethod": 9319,
      "Producer": 9320,
      "votes": 9321,
      "\")]": 9322,
      "Ġsubclasses": 9323,
      "both": 9324,
      "Tx": 9325,
      "Ġcallbacks": 9326,
      "ya": 9327,
      "Ġ35": 9328,
      "certs": 9329,
      "mV": 9330,
      "ĠSSH": 9331,
      "authenticate": 9332,
      "anchor": 9333,
      "OUTPUT": 9334,
      "highlight": 9335,
      "Agg": 9336,
      "Ġproperly": 9337,
      "KI": 9338,
      "Ġpg": 9339,
      "uestion": 9340,
      "(.": 9341,
      "cedu": 9342,
      "hasattr": 9343,
      "='%": 9344,
      "iki": 9345,
      "ĠĠĠĠĠĠĠĠĠĠĠĠĠĠĠĠĠĠ": 9346,
      "Monitor": 9347,
      "Git": 9348,
      "jz": 9349,
      "questions": 9350,
      "inplace": 9351,
      "Ġgeom": 9352,
      "Au": 9353,
      "ftype": 9354,
      "ads": 9355,
      "outine": 9356,
      "PD": 9357,
      "RST": 9358,
      "Ġfrequency": 9359,
      "Ġ:]": 9360,
      "acce": 9361,
      "tabs": 9362,
      "uide": 9363,
      "presented": 9364,
      "lk": 9365,
      "abort": 9366,
      "AttributeError": 9367,
      "Temporary": 9368,
      "SN": 9369,
      "JQ": 9370,
      "qz": 9371,
      "keeper": 9372,
      "Ġnever": 9373,
      "Ġdocuments": 9374,
      "ple": 9375,
      "}))": 9376,
      "rown": 9377,
      "Ġ2014": 9378,
      "AMS": 9379,
      "sually": 9380,
      "yu": 9381,
      "Ġage": 9382,
      "pective": 9383,
      "ĠStream": 9384,
      "something": 9385,
      "scenario": 9386,
      "tell": 9387,
      "IGHT": 9388,
      "munity": 9389,
      "StubOut": 9390,
      "ĠMap": 9391,
      "minor": 9392,
      "://%": 9393,
      "Ġlocations": 9394,
      "FG": 9395,
      "Ġcss": 9396,
      "Ġ[%": 9397,
      "Ġfore": 9398,
      "Ġcookies": 9399,
      "*\\": 9400,
      "anit": 9401,
      "irth": 9402,
      "ctxt": 9403,
      "libs": 9404,
      "ĠGets": 9405,
      "Ġrecursive": 9406,
      "MEM": 9407,
      "managed": 9408,
      "Mis": 9409,
      "vie": 9410,
      "lwrite": 9411,
      "ĠJO": 9412,
      "dimensions": 9413,
      "Pipeline": 9414,
      "slot": 9415,
      "streams": 9416,
      ")['": 9417,
      "Ġinfile": 9418,
      "='<": 9419,
      "Ġdestroy": 9420,
      "spy": 9421,
      "ĠINST": 9422,
      "contig": 9423,
      "ILED": 9424,
      "Zk": 9425,
      "locate": 9426,
      "Ġlaunch": 9427,
      "three": 9428,
      "Ġfailures": 9429,
      "Ġgreater": 9430,
      "HOUT": 9431,
      "SYSTEM": 9432,
      "FH": 9433,
      "Summary": 9434,
      "Full": 9435,
      "election": 9436,
      "Ġsudo": 9437,
      "ynomial": 9438,
      "commen": 9439,
      "ĠRange": 9440,
      "istence": 9441,
      "Ġhappen": 9442,
      "Ġshift": 9443,
      "NAMES": 9444,
      "Ġnumeric": 9445,
      "cipher": 9446,
      "Ui": 9447,
      "ĠTIME": 9448,
      "Ġinvoked": 9449,
      "Ġgive": 9450,
      "ducing": 9451,
      "ORDER": 9452,
      "ĠTEMPLATE": 9453,
      "javascript": 9454,
      "nz": 9455,
      "sx": 9456,
      "Ġdeps": 9457,
      "Ġpull": 9458,
      "Ġformset": 9459,
      "ITHOUT": 9460,
      "Ġframes": 9461,
      "Ġsubmit": 9462,
      "inet": 9463,
      "setValue": 9464,
      "ĠMon": 9465,
      "WithMock": 9466,
      "5000": 9467,
      "WQ": 9468,
      "Console": 9469,
      "tzinfo": 9470,
      "arrays": 9471,
      "Ġnick": 9472,
      "Ġer": 9473,
      "ased": 9474,
      "stricted": 9475,
      "Events": 9476,
      "gk": 9477,
      "Ġ00": 9478,
      "setText": 9479,
      "ĠMet": 9480,
      "Ġ\"%(": 9481,
[...]
